<pad>	0
<unk>	0
<s>	0
</s>	0
▁a	-0
▁n	-1
▁d	-2
aa	-3
▁l	-4
en	-5
es	-6
▁f	-7
▁o	-8
▁s	-9
oo	-10
▁m	-11
▁t	-12
▁p	-13
an	-14
▁c	-15
re	-16
on	-17
ou	-18
ee	-19
in	-20
it	-21
▁de	-22
▁k	-23
er	-24
qu	-25
et	-26
is	-27
ar	-28
il	-29
eu	-30
▁qu	-31
ent	-32
le	-33
▁la	-34
▁v	-35
▁x	-36
▁no	-37
un	-38
▁le	-39
▁fo	-40
na	-41
el	-42
▁w	-43
▁et	-44
▁j	-45
ra	-46
▁b	-47
▁y	-48
▁nd	-49
am	-50
at	-51
ous	-52
▁re	-53
▁r	-54
▁Y	-55
ir	-56
ax	-57
▁na	-58
▁mb	-59
▁les	-60
xe	-61
▁à	-62
▁fa	-63
om	-64
our	-65
as	-66
eur	-67
or	-68
▁ne	-69
▁S	-70
al	-71
oox	-72
▁A	-73
and	-74
▁g	-75
▁ke	-76
us	-77
um	-78
▁nu	-79
te	-80
▁en	-81
▁«	-82
aam	-83
▁M	-84
oi	-85
▁sa	-86
▁we	-87
ii	-88
aal	-89
ig	-90
▁oxe	-91
▁que	-92
ant	-93
▁au	-94
ga	-95
▁fee	-96
▁xa	-97
ur	-98
▁D	-99
ui	-100
▁ta	-101
▁des	-102
▁I	-103
me	-104
▁pr	-105
▁un	-106
oog	-107
▁den	-108
▁J	-109
ont	-110
▁too	-111
▁il	-112
▁je	-113
eer	-114
▁qui	-115
est	-116
em	-117
.»	-118
▁maa	-119
és	-120
oy	-121
ai	-122
▁par	-123
▁ref	-124
▁vous	-125
▁h	-126
▁du	-127
▁um	-128
▁pour	-129
▁av	-130
▁N	-131
aan	-132
au	-133
▁ƥ	-134
ch	-135
ait	-136
oor	-137
een	-138
ign	-139
im	-140
ans	-141
▁L	-142
▁ñ	-143
▁pas	-144
end	-145
▁R	-146
▁é	-147
▁kaa	-148
ieu	-149
ais	-150
ay	-151
tre	-152
▁in	-153
ons	-154
eign	-155
▁se	-156
ang	-157
▁nuun	-158
▁Yaal	-159
eigneur	-160
▁soo	-161
▁C	-162
ce	-163
▁com	-164
▁K	-165
▁Seigneur	-166
ri	-167
os	-168
ab	-169
res	-170
ef	-171
▁fop	-172
uu	-173
▁ch	-174
▁ce	-175
ik	-176
▁dans	-177
id	-178
ad	-179
▁ɓ	-180
▁lay	-181
▁lui	-182
▁Dieu	-183
▁Roog	-184
▁P	-185
ene	-186
▁O	-187
▁an	-188
▁ng	-189
▁nj	-190
ut	-191
aax	-192
iid	-193
les	-194
▁ƭ	-195
onn	-196
▁B	-197
oon	-198
▁q	-199
▁leur	-200
▁da	-201
▁dé	-202
out	-203
ien	-204
▁E	-205
ez	-206
▁boo	-207
▁.	-208
ind	-209
kaa	-210
la	-211
iy	-212
sra	-213
▁ét	-214
ils	-215
▁Il	-216
pr	-217
▁ten	-218
ec	-219
ée	-220
ke	-221
ag	-222
ot	-223
▁ole	-224
▁ee	-225
▁ré	-226
si	-227
▁es	-228
▁on	-229
ond	-230
eux	-231
▁te	-232
▁T	-233
ers	-234
eng	-235
▁tr	-236
ort	-237
▁nq	-238
▁ndax	-239
aient	-240
ol	-241
ul	-242
ère	-243
ire	-244
iin	-245
uis	-246
ain	-247
▁sur	-248
ti	-249
▁of	-250
▁yaam	-251
ouv	-252
se	-253
aaga	-254
▁xan	-255
▁al	-256
▁son	-257
▁maad	-258
rent	-259
▁tu	-260
▁jeg	-261
▁ale	-262
ors	-263
▁F	-264
▁une	-265
▁ser	-266
▁fi	-267
▁est	-268
ak	-269
▁waa	-270
▁me	-271
▁nous	-272
▁koy	-273
elle	-274
ox	-275
ina	-276
ci	-277
ment	-278
▁avec	-279
eet	-280
ud	-281
ok	-282
▁axe	-283
▁kam	-284
eg	-285
ois	-286
▁leng	-287
pp	-288
▁pl	-289
▁tout	-290
▁H	-291
▁Isra	-292
ie	-293
èrent	-294
tres	-295
▁ils	-296
av	-297
▁mbaa	-298
ille	-299
ites	-300
▁i	-301
ér	-302
▁X	-303
▁pro	-304
iv	-305
ist	-306
▁yee	-307
▁ndef	-308
fi	-309
▁dit	-310
▁ƥiy	-311
eem	-312
eau	-313
aw	-314
que	-315
ac	-316
ès	-317
ens	-318
▁ses	-319
▁G	-320
▁mais	-321
▁Ye	-322
▁fils	-323
ion	-324
dax	-325
▁roi	-326
ple	-327
▁peu	-328
mes	-329
▁mi	-330
▁Kaa	-331
▁and	-332
ants	-333
▁,	-334
▁dev	-335
▁ɗ	-336
tu	-337
▁comme	-338
▁ake	-339
onc	-340
▁Le	-341
of	-342
▁refna	-343
▁took	-344
ême	-345
▁su	-346
ool	-347
▁tous	-348
oit	-349
ne	-350
▁saax	-351
era	-352
▁plus	-353
▁si	-354
él	-355
oir	-356
aas	-357
▁hom	-358
▁faa	-359
irent	-360
▁car	-361
▁ca	-362
▁naa	-363
▁ra	-364
▁ndaa	-365
eene	-366
Qu	-367
ug	-368
ux	-369
▁moi	-370
ésus	-371
ex	-372
ette	-373
▁ar	-374
▁aux	-375
▁Jésus	-376
ara	-377
▁avait	-378
▁ent	-379
▁cel	-380
ira	-381
erre	-382
▁as	-383
▁nom	-384
eeru	-385
▁cont	-386
tes	-387
être	-388
ong	-389
▁nen	-390
▁tax	-391
iis	-392
▁sadax	-393
arɓ	-394
▁gr	-395
▁jour	-396
ta	-397
eena	-398
itam	-399
eb	-400
▁itam	-401
iss	-402
mand	-403
▁mbi	-404
og	-405
uit	-406
▁bien	-407
▁rép	-408
▁ou	-409
iif	-410
▁dis	-411
▁ox	-412
eel	-413
▁wo	-414
ël	-415
aaw	-416
cc	-417
▁mu	-418
▁ci	-419
▁ol	-420
▁ñoo	-421
rez	-422
aq	-423
ement	-424
▁pay	-425
inj	-426
oup	-427
ét	-428
ge	-429
▁mon	-430
ore	-431
onne	-432
▁teeru	-433
ord	-434
▁déc	-435
▁mbaat	-436
aak	-437
▁mat	-438
ard	-439
!»	-440
▁yaa	-441
ooxa	-442
uun	-443
▁xe	-444
▁mbind	-445
▁Je	-446
insi	-447
▁Ab	-448
▁mo	-449
▁cons	-450
emb	-451
▁onq	-452
▁Les	-453
▁ndeer	-454
▁xeet	-455
li	-456
▁lak	-457
▁É	-458
▁Qu	-459
▁ad	-460
ob	-461
?»	-462
aamb	-463
▁ces	-464
▁mal	-465
▁Mais	-466
onna	-467
▁même	-468
▁Ils	-469
ité	-470
▁leurs	-471
aand	-472
▁ɓet	-473
▁jus	-474
▁kiin	-475
▁pays	-476
▁wiin	-477
mi	-478
▁tem	-479
uum	-480
oute	-481
ance	-482
lem	-483
▁maak	-484
▁fait	-485
▁fat	-486
int	-487
che	-488
▁lakas	-489
▁teen	-490
▁sac	-491
▁nan	-492
▁ceux	-493
▁sont	-494
sa	-495
▁app	-496
▁vo	-497
▁cette	-498
▁était	-499
esu	-500
▁où	-501
adax	-502
▁Mb	-503
▁sax	-504
▁ma	-505
▁prop	-506
▁peuple	-507
ill	-508
anq	-509
▁V	-510
uur	-511
oong	-512
▁serv	-513
aambir	-514
ussi	-515
tr	-516
▁pi	-517
▁njeg	-518
▁“	-519
▁comp	-520
éc	-521
itna	-522
▁may	-523
▁ton	-524
▁ñoow	-525
kee	-526
▁puis	-527
▁part	-528
rit	-529
od	-530
▁toi	-531
oona	-532
▁paax	-533
élites	-534
▁ƭik	-535
▁nga	-536
▁ga	-537
Isra	-538
▁mbaambir	-539
isra	-540
ve	-541
yo	-542
▁En	-543
▁aussi	-544
▁ndee	-545
▁ainsi	-546
▁Ch	-547
Israël	-548
▁waag	-549
iya	-550
▁oo	-551
oxot	-552
uuna	-553
▁rend	-554
▁répond	-555
ib	-556
▁votre	-557
oƥ	-558
ête	-559
ert	-560
▁Mo	-561
▁Yeesu	-562
▁‹	-563
▁ñaal	-564
▁donc	-565
▁donn	-566
▁olaa	-567
▁Maaga	-568
uf	-569
ions	-570
ins	-571
près	-572
▁keene	-573
af	-574
éd	-575
angaa	-576
▁ni	-577
▁Jér	-578
▁Israélites	-579
▁Ii	-580
eƭ	-581
▁fr	-582
ess	-583
axam	-584
▁Fat	-585
▁onqe	-586
▁tra	-587
ces	-588
ps	-589
▁contre	-590
▁grand	-591
aut	-592
taa	-593
ooxaa	-594
▁main	-595
▁elle	-596
▁mort	-597
▁kaaga	-598
une	-599
▁No	-600
▁trouv	-601
eeke	-602
▁ville	-603
noor	-604
▁refu	-605
▁alors	-606
▁fem	-607
iim	-608
▁acc	-609
illes	-610
arna	-611
eff	-612
▁celui	-613
avid	-614
cend	-615
▁–	-616
▁hommes	-617
ées	-618
iens	-619
▁enc	-620
▁David	-621
eurs	-622
ed	-623
▁W	-624
▁deux	-625
▁qarɓ	-626
▁qarɓeen	-627
eerna	-628
erai	-629
▁Al	-630
▁dés	-631
▁ex	-632
ine	-633
▁jam	-634
▁env	-635
ass	-636
▁moƴ	-637
▁laa	-638
▁ɓetuu	-639
▁or	-640
▁ret	-641
oq	-642
ap	-643
▁gens	-644
▁taxu	-645
▁demand	-646
ure	-647
éch	-648
▁mont	-649
▁ñaam	-650
up	-651
▁eff	-652
▁devant	-653
▁faire	-654
▁encore	-655
awid	-656
ler	-657
aay	-658
omp	-659
rai	-660
▁saas	-661
ari	-662
▁lanq	-663
▁descend	-664
oire	-665
êtres	-666
▁homme	-667
▁dal	-668
▁Dawid	-669
▁maaga	-670
▁comm	-671
ôt	-672
prit	-673
▁Jud	-674
▁at	-675
▁vos	-676
rifi	-677
▁Alors	-678
ue	-679
▁sut	-680
▁cr	-681
ten	-682
▁eux	-683
arg	-684
▁mba	-685
ter	-686
ation	-687
eed	-688
usa	-689
▁vie	-690
alom	-691
ïse	-692
uni	-693
▁ye	-694
omme	-695
▁terre	-696
▁vi	-697
orte	-698
udaa	-699
▁sacrifi	-700
▁Moïse	-701
▁off	-702
iik	-703
aar	-704
▁U	-705
▁xoox	-706
age	-707
agn	-708
▁br	-709
▁Xan	-710
ena	-711
▁Mbind	-712
▁Si	-713
uuma	-714
▁été	-715
▁suis	-716
aire	-717
▁con	-718
▁jusqu	-719
▁autres	-720
▁ont	-721
▁pers	-722
▁tew	-723
▁El	-724
▁for	-725
▁saasadax	-726
ante	-727
▁bug	-728
bre	-729
▁af	-730
ieux	-731
▁oxaa	-732
op	-733
▁tad	-734
toox	-735
rib	-736
▁res	-737
▁gen	-738
uite	-739
▁quel	-740
▁temple	-741
usalem	-742
ière	-743
▁reeƭ	-744
ras	-745
▁pa	-746
▁ngen	-747
quoi	-748
▁sans	-749
▁viv	-750
▁Jérusalem	-751
aad	-752
andeer	-753
▁koor	-754
▁sera	-755
bil	-756
abit	-757
oogu	-758
▁étaient	-759
▁pla	-760
oya	-761
kaad	-762
▁effet	-763
usal	-764
▁ven	-765
▁ndok	-766
endant	-767
▁Yudaa	-768
▁ba	-769
▁père	-770
eerusal	-771
eerusaleem	-772
▁di	-773
eront	-774
▁arri	-775
▁im	-776
fa	-777
▁taan	-778
ré	-779
▁tig	-780
▁Yeerusaleem	-781
rer	-782
▁heb	-783
▁gar	-784
▁xam	-785
▁yoon	-786
▁Cinj	-787
roit	-788
▁rem	-789
▁xot	-790
aɓ	-791
▁ndam	-792
lement	-793
▁Juda	-794
▁alaa	-795
▁teem	-796
cti	-797
▁Nd	-798
▁fut	-799
▁saŋ	-800
aux	-801
oyiis	-802
ook	-803
▁éc	-804
▁seu	-805
▁ob	-806
oogna	-807
kat	-808
▁répondit	-809
jour	-810
▁Moyiis	-811
▁là	-812
xire	-813
yp	-814
▁femme	-815
▁ord	-816
▁kebil	-817
▁ins	-818
▁être	-819
.›	-820
▁war	-821
▁Mis	-822
elles	-823
▁ter	-824
▁sort	-825
▁décla	-826
▁notre	-827
be	-828
homme	-829
ème	-830
ître	-831
▁Et	-832
onde	-833
▁faap	-834
▁fog	-835
▁déclare	-836
ém	-837
▁moo	-838
▁chez	-839
▁ap	-840
able	-841
ép	-842
▁nah	-843
▁mang	-844
vous	-845
gyp	-846
▁Kir	-847
▁fit	-848
▁ted	-849
▁kiid	-850
▁habit	-851
ères	-852
▁cond	-853
▁toute	-854
▁ndefna	-855
ah	-856
▁col	-857
▁yeg	-858
▁paro	-859
emp	-860
▁ɓoxot	-861
▁ŋ	-862
▁mour	-863
▁yaal	-864
cher	-865
▁tes	-866
▁ann	-867
▁cinj	-868
iiñ	-869
▁prés	-870
▁bat	-871
eeñ	-872
▁coox	-873
▁Salom	-874
va	-875
▁rec	-876
▁ɓis	-877
endre	-878
istaa	-879
▁boog	-880
▁fad	-881
▁mes	-882
ia	-883
▁Sa	-884
ite	-885
▁Ten	-886
▁mayu	-887
▁sal	-888
▁sol	-889
▁La	-890
▁ndeeƭ	-891
▁Ph	-892
▁goor	-893
▁»	-894
▁Am	-895
ooxan	-896
axay	-897
aat	-898
▁vin	-899
▁chef	-900
én	-901
arɓaxay	-902
▁Kiristaa	-903
▁ƈ	-904
▁fam	-905
▁rim	-906
▁xarɓaxay	-907
▁Neene	-908
▁toutes	-909
oora	-910
▁soƥ	-911
▁Jos	-912
iixire	-913
▁Mi	-914
▁enf	-915
▁dép	-916
hè	-917
ets	-918
▁Vous	-919
▁.»	-920
oici	-921
tenant	-922
▁ƭat	-923
▁carind	-924
▁Yaa	-925
▁per	-926
urent	-927
amaan	-928
▁quand	-929
tin	-930
ƭar	-931
▁anc	-932
▁nde	-933
iiki	-934
▁rien	-935
rist	-936
noox	-937
▁pos	-938
▁descendants	-939
exe	-940
▁Yos	-941
▁teemeed	-942
eef	-943
▁ndet	-944
▁ndefu	-945
▁neene	-946
use	-947
▁cela	-948
▁monde	-949
▁ép	-950
▁xon	-951
▁On	-952
▁Aar	-953
▁pouv	-954
ente	-955
ek	-956
ations	-957
ow	-958
remi	-959
bat	-960
ges	-961
ier	-962
▁imp	-963
▁rég	-964
auv	-965
eut	-966
eaux	-967
▁dire	-968
▁am	-969
▁coup	-970
app	-971
▁Sam	-972
ples	-973
▁vers	-974
lé	-975
ss	-976
amp	-977
▁rev	-978
▁prophè	-979
uiv	-980
▁yoq	-981
▁trois	-982
même	-983
▁Bab	-984
▁Misira	-985
ents	-986
▁ngim	-987
ence	-988
ham	-989
iida	-990
êtes	-991
▁pass	-992
▁sou	-993
▁nand	-994
aaj	-995
▁ren	-996
▁ƥay	-997
▁port	-998
oole	-999
eek	-1000
▁Abra	-1001
▁xiixire	-1002
omb	-1003
atin	-1004
▁fuu	-1005
▁man	-1006
▁mbaag	-1007
▁reg	-1008
▁aut	-1009
ooxna	-1010
if	-1011
▁ax	-1012
uk	-1013
▁doole	-1014
▁tadik	-1015
ver	-1016
▁tou	-1017
▁avaient	-1018
anc	-1019
▁mbar	-1020
ront	-1021
év	-1022
▁met	-1023
orsque	-1024
▁ens	-1025
ilist	-1026
ep	-1027
▁ƴ	-1028
▁trib	-1029
▁layaa	-1030
▁sadaxand	-1031
Je	-1032
pt	-1033
▁rok	-1034
▁péch	-1035
ate	-1036
▁fañ	-1037
▁reef	-1038
are	-1039
▁yaaga	-1040
▁pourquoi	-1041
▁liv	-1042
▁gu	-1043
añ	-1044
▁ag	-1045
▁personne	-1046
oul	-1047
aang	-1048
▁bes	-1049
▁lul	-1050
gypte	-1051
▁farna	-1052
▁Ah	-1053
▁quelqu	-1054
iran	-1055
▁cor	-1056
▁Quand	-1057
▁cuni	-1058
▁oxuu	-1059
▁paam	-1060
▁cof	-1061
▁asamaan	-1062
▁saq	-1063
▁ƥis	-1064
▁servit	-1065
▁ɓay	-1066
gil	-1067
oc	-1068
▁Xa	-1069
▁maat	-1070
ma	-1071
▁ai	-1072
▁afin	-1073
▁soit	-1074
▁appel	-1075
▁gon	-1076
éri	-1077
▁As	-1078
okat	-1079
▁dara	-1080
▁rest	-1081
ième	-1082
▁caf	-1083
▁muk	-1084
▁Puis	-1085
nes	-1086
▁Ne	-1087
eure	-1088
itu	-1089
▁autre	-1090
▁va	-1091
▁sim	-1092
▁entre	-1093
▁kid	-1094
▁nombre	-1095
nit	-1096
▁ab	-1097
ooga	-1098
▁Xam	-1099
▁cet	-1100
oofi	-1101
▁laiss	-1102
▁cl	-1103
▁peut	-1104
ff	-1105
rait	-1106
▁gard	-1107
▁mos	-1108
éb	-1109
▁nouv	-1110
lel	-1111
▁conna	-1112
▁ya	-1113
▁qoox	-1114
▁parce	-1115
▁temps	-1116
▁maintenant	-1117
ile	-1118
▁adna	-1119
▁avez	-1120
▁sacrifices	-1121
ches	-1122
▁soom	-1123
▁sec	-1124
▁refkaa	-1125
▁parti	-1126
▁premi	-1127
▁att	-1128
▁daaw	-1129
▁paaxeer	-1130
iɓ	-1131
▁Bet	-1132
▁ndal	-1133
cl	-1134
rand	-1135
▁cour	-1136
▁Abraham	-1137
de	-1138
▁Un	-1139
igil	-1140
▁doon	-1141
▁prêtres	-1142
ient	-1143
aap	-1144
▁villes	-1145
tan	-1146
aaliis	-1147
wi	-1148
ze	-1149
▁jof	-1150
.”	-1151
oom	-1152
▁resp	-1153
ég	-1154
▁inoor	-1155
oin	-1156
▁auc	-1157
▁pris	-1158
▁qeet	-1159
▁côt	-1160
▁loi	-1161
▁Keene	-1162
▁après	-1163
▁arriv	-1164
’’	-1165
▁Is	-1166
elem	-1167
▁hum	-1168
▁ɗik	-1169
▁mbad	-1170
naa	-1171
œur	-1172
▁ri	-1173
▁doit	-1174
jet	-1175
▁ndeef	-1176
▁vais	-1177
▁wur	-1178
▁suiv	-1179
▁ƥoxot	-1180
lit	-1181
embl	-1182
▁ƭaq	-1183
▁xaaliis	-1184
ora	-1185
▁ceg	-1186
▁ciel	-1187
▁lool	-1188
▁mbog	-1189
▁nqool	-1190
▁maison	-1191
cont	-1192
▁Boo	-1193
▁ñaa	-1194
▁mbiñ	-1195
▁tedu	-1196
▁Es	-1197
▁non	-1198
▁sau	-1199
▁dont	-1200
▁roog	-1201
▁ans	-1202
▁faw	-1203
▁rés	-1204
▁ƥet	-1205
tal	-1206
▁jaɓ	-1207
ements	-1208
▁saɗ	-1209
▁ñak	-1210
▁hiid	-1211
▁wurus	-1212
▁Ke	-1213
quer	-1214
▁mbokat	-1215
exey	-1216
▁maag	-1217
giloox	-1218
uc	-1219
ume	-1220
▁all	-1221
▁fer	-1222
▁daan	-1223
ub	-1224
ɗel	-1225
▁jan	-1226
▁Yaaw	-1227
▁Aa	-1228
▁ass	-1229
▁sav	-1230
fs	-1231
och	-1232
▁Ba	-1233
▁cin	-1234
▁rek	-1235
auvais	-1236
▁seront	-1237
▁Yaawuur	-1238
ourn	-1239
autre	-1240
jours	-1241
▁jang	-1242
▁droit	-1243
Es	-1244
ka	-1245
ats	-1246
▁Na	-1247
▁Gal	-1248
▁ndigil	-1249
▁toujours	-1250
ble	-1251
▁cer	-1252
▁mom	-1253
▁reç	-1254
▁vis	-1255
▁Tu	-1256
▁seul	-1257
▁avoir	-1258
▁beau	-1259
▁moment	-1260
▁;	-1261
▁nqon	-1262
▁tomb	-1263
▁entend	-1264
là	-1265
acc	-1266
▁max	-1267
▁nahik	-1268
▁mauvais	-1269
▁bo	-1270
anaa	-1271
▁nqe	-1272
▁camp	-1273
oŋ	-1274
èg	-1275
amb	-1276
▁fin	-1277
▁kil	-1278
▁mis	-1279
▁mbug	-1280
▁quat	-1281
fe	-1282
▁kut	-1283
▁saŋe	-1284
▁ƥeem	-1285
▁porte	-1286
▁mar	-1287
▁enfants	-1288
acun	-1289
▁bar	-1290
▁eut	-1291
▁avons	-1292
▁disci	-1293
▁frères	-1294
lis	-1295
lon	-1296
mée	-1297
ables	-1298
argent	-1299
▁cause	-1300
kandeer	-1301
ern	-1302
lig	-1303
ül	-1304
xuu	-1305
▁fais	-1306
nax	-1307
rati	-1308
roog	-1309
teena	-1310
▁jamais	-1311
▁sacrifice	-1312
▁prêtre	-1313
▁Saül	-1314
▁faax	-1315
▁envoy	-1316
aya	-1317
ains	-1318
▁pouvoir	-1319
iro	-1320
▁cha	-1321
▁Pour	-1322
▁yiif	-1323
vers	-1324
▁koƥ	-1325
▁Yiif	-1326
▁cher	-1327
▁furent	-1328
▁don	-1329
▁moof	-1330
▁cou	-1331
▁mess	-1332
kan	-1333
▁eet	-1334
▁gim	-1335
▁som	-1336
▁Nous	-1337
Égypte	-1338
▁chefs	-1339
▁puiss	-1340
▁nomtoox	-1341
ques	-1342
▁fel	-1343
▁pendant	-1344
oix	-1345
ction	-1346
êt	-1347
▁bon	-1348
▁emp	-1349
▁qaw	-1350
▁accomp	-1351
▁parole	-1352
▁habitants	-1353
aaɓ	-1354
rir	-1355
▁Nu	-1356
▁Jac	-1357
▁las	-1358
▁muu	-1359
▁yir	-1360
uifs	-1361
iɓoor	-1362
▁calel	-1363
ath	-1364
▁Ce	-1365
▁kel	-1366
▁pet	-1367
▁sept	-1368
aab	-1369
art	-1370
oie	-1371
akin	-1372
▁dem	-1373
▁fud	-1374
▁Z	-1375
▁règ	-1376
▁tag	-1377
etand	-1378
▁compl	-1379
▁accord	-1380
▁jeu	-1381
▁ɓemb	-1382
▁command	-1383
▁disciples	-1384
iers	-1385
tant	-1386
▁dam	-1387
▁ñam	-1388
▁Fils	-1389
▁kaam	-1390
▁reste	-1391
▁ñamaak	-1392
▁nos	-1393
▁rep	-1394
▁prom	-1395
▁prophète	-1396
oɗ	-1397
ung	-1398
▁fuux	-1399
oyaume	-1400
▁parmi	-1401
▁ngenna	-1402
ange	-1403
▁saƭ	-1404
entre	-1405
▁côté	-1406
we	-1407
ron	-1408
▁Car	-1409
▁Cel	-1410
▁muc	-1411
▁moƴna	-1412
▁Ndiiki	-1413
▁xaƴ	-1414
▁disp	-1415
▁nuit	-1416
rée	-1417
▁sold	-1418
▁donné	-1419
▁pexey	-1420
▁territ	-1421
▁ancêtres	-1422
Ch	-1423
tel	-1424
▁jug	-1425
▁xay	-1426
▁jours	-1427
▁xeɗ	-1428
▁biiñ	-1429
▁troup	-1430
anan	-1431
▁mit	-1432
▁près	-1433
▁manger	-1434
▁aa	-1435
oule	-1436
▁feu	-1437
▁pakaad	-1438
▁demanda	-1439
▁famille	-1440
erv	-1441
▁Au	-1442
▁Jo	-1443
aaka	-1444
alal	-1445
▁xoy	-1446
▁ɗeet	-1447
moi	-1448
coup	-1449
▁tribu	-1450
▁Christ	-1451
▁donner	-1452
pa	-1453
était	-1454
▁tête	-1455
▁servi	-1456
▁Kaam	-1457
▁axaa	-1458
▁ndeɓ	-1459
▁ngar	-1460
▁donna	-1461
▁présent	-1462
aï	-1463
▁chos	-1464
met	-1465
oig	-1466
uire	-1467
▁xaw	-1468
▁fois	-1469
▁très	-1470
▁grande	-1471
oola	-1472
teel	-1473
▁yer	-1474
▁Elle	-1475
▁Salomon	-1476
ué	-1477
fra	-1478
ing	-1479
▁An	-1480
ires	-1481
▁foi	-1482
awul	-1483
▁mois	-1484
▁weene	-1485
▁ɓetaa	-1486
▁Aaroon	-1487
tiid	-1488
▁Ndax	-1489
▁corps	-1490
▁mille	-1491
▁chacun	-1492
ylon	-1493
▁Ben	-1494
▁bind	-1495
▁jega	-1496
▁ngiɓoor	-1497
nent	-1498
▁rew	-1499
▁Oxuu	-1500
▁laya	-1501
ses	-1502
ues	-1503
▁appr	-1504
▁faut	-1505
▁Salomo	-1506
aƭar	-1507
enez	-1508
▁ici	-1509
▁suk	-1510
autel	-1511
▁sais	-1512
Esprit	-1513
eele	-1514
▁yaq	-1515
▁saɗar	-1516
▁De	-1517
▁serviteur	-1518
▁réc	-1519
endra	-1520
▁long	-1521
▁Leele	-1522
▁Sawul	-1523
▁soldats	-1524
▁kat	-1525
onnes	-1526
▁Jacob	-1527
▁layun	-1528
▁mourir	-1529
don	-1530
fir	-1531
▁ƈuf	-1532
▁Leelewi	-1533
▁paroles	-1534
hu	-1535
rés	-1536
rang	-1537
uits	-1538
▁atta	-1539
▁avant	-1540
ip	-1541
▁foofi	-1542
▁trava	-1543
▁combat	-1544
mé	-1545
▁mer	-1546
▁décl	-1547
▁mexe	-1548
▁région	-1549
▁ndeeƭna	-1550
▁gl	-1551
▁gra	-1552
▁jal	-1553
▁pur	-1554
▁ndox	-1555
▁parler	-1556
▁Par	-1557
▁bou	-1558
▁hup	-1559
orsqu	-1560
▁kelfa	-1561
▁njang	-1562
autres	-1563
▁frère	-1564
êtement	-1565
nem	-1566
▁nee	-1567
uleer	-1568
▁rois	-1569
▁xaye	-1570
▁Babylon	-1571
Qui	-1572
▁jet	-1573
▁lam	-1574
▁sab	-1575
▁cœur	-1576
▁ndak	-1577
▁sang	-1578
▁trans	-1579
▁beaucoup	-1580
ît	-1581
ifi	-1582
ves	-1583
heur	-1584
▁sous	-1585
▁joong	-1586
dil	-1587
enf	-1588
▁lév	-1589
▁Faap	-1590
▁remp	-1591
▁ñoowaa	-1592
▁territoire	-1593
ata	-1594
asil	-1595
▁Yer	-1596
for	-1597
suite	-1598
▁Keeke	-1599
▁aucun	-1600
▁femmes	-1601
▁feene	-1602
▁place	-1603
▁Lorsque	-1604
tit	-1605
atan	-1606
▁val	-1607
axama	-1608
érité	-1609
▁mère	-1610
▁noon	-1611
▁ñoot	-1612
▁jegna	-1613
ié	-1614
iez	-1615
onné	-1616
avait	-1617
▁donne	-1618
▁mbaax	-1619
▁service	-1620
ach	-1621
igne	-1622
▁Oxe	-1623
▁auprès	-1624
▁xew	-1625
▁prit	-1626
▁oxeene	-1627
ale	-1628
▁ple	-1629
▁vit	-1630
▁pous	-1631
▁venir	-1632
▁vêtement	-1633
itkaa	-1634
▁feeñ	-1635
▁voul	-1636
▁ñaaƴ	-1637
▁colère	-1638
▁sommes	-1639
▁xotitna	-1640
uɓ	-1641
ana	-1642
▁dox	-1643
▁kuu	-1644
▁pal	-1645
▁mari	-1646
▁ƥasil	-1647
▁noonoong	-1648
fre	-1649
men	-1650
won	-1651
aane	-1652
enir	-1653
ines	-1654
▁quit	-1655
▁yeux	-1656
▁fiɗel	-1657
▁quatre	-1658
ilon	-1659
iter	-1660
iidna	-1661
▁Après	-1662
▁Celui	-1663
▁appar	-1664
▁elles	-1665
▁étrang	-1666
hui	-1667
oob	-1668
▁let	-1669
▁tok	-1670
▁xet	-1671
jourd	-1672
▁pind	-1673
▁Ainsi	-1674
▁celle	-1675
▁consac	-1676
aul	-1677
ise	-1678
ress	-1679
▁yoo	-1680
oonga	-1681
▁chois	-1682
di	-1683
oƭ	-1684
ya	-1685
▁laam	-1686
▁constr	-1687
Si	-1688
ctions	-1689
▁chaque	-1690
oot	-1691
▁dix	-1692
angee	-1693
▁mbaɗ	-1694
ied	-1695
oth	-1696
▁mil	-1697
▁njaɓ	-1698
▁bakaad	-1699
▁tee	-1700
fooxa	-1701
▁Père	-1702
▁dieux	-1703
▁regard	-1704
▁fl	-1705
agne	-1706
tion	-1707
ures	-1708
▁char	-1709
atee	-1710
▁cad	-1711
▁laƥ	-1712
▁détr	-1713
▁êtes	-1714
▁naaga	-1715
▁Ensuite	-1716
▁prendre	-1717
▁Ar	-1718
▁fra	-1719
▁naag	-1720
▁repr	-1721
▁ɓisiid	-1722
▁mbañ	-1723
▁xeeñ	-1724
▁ennem	-1725
▁tente	-1726
▁ƭelem	-1727
▁rencont	-1728
amin	-1729
▁dag	-1730
▁wat	-1731
▁commun	-1732
▁offrand	-1733
té	-1734
eph	-1735
rie	-1736
vent	-1737
▁akaa	-1738
▁conv	-1739
▁yeng	-1740
▁reeƭu	-1741
▁désert	-1742
▁propre	-1743
▁comment	-1744
enu	-1745
▁pied	-1746
▁tooñ	-1747
▁compr	-1748
▁ndaaw	-1749
▁Ƥ	-1750
aañ	-1751
ias	-1752
▁ac	-1753
Christ	-1754
▁Babilon	-1755
ees	-1756
édi	-1757
puis	-1758
▁Ted	-1759
▁Fiif	-1760
▁Aaron	-1761
▁Israël	-1762
▁Joseph	-1763
ev	-1764
axtu	-1765
▁lal	-1766
▁éga	-1767
andin	-1768
ilista	-1769
▁petit	-1770
▁respec	-1771
▁Fiifilista	-1772
els	-1773
aine	-1774
▁Yak	-1775
▁tour	-1776
▁Juifs	-1777
▁fille	-1778
▁dirent	-1779
▁nations	-1780
min	-1781
êmes	-1782
▁livre	-1783
▁refee	-1784
▁sujet	-1785
lez	-1786
ités	-1787
▁xar	-1788
▁nouveau	-1789
cla	-1790
iment	-1791
mande	-1792
▁Tedu	-1793
▁sages	-1794
din	-1795
▁dou	-1796
▁piè	-1797
▁geen	-1798
▁réal	-1799
▁ndoon	-1800
▁Yakoob	-1801
ner	-1802
uss	-1803
arie	-1804
oolaƭar	-1805
ko	-1806
èv	-1807
▁brû	-1808
▁sel	-1809
▁sup	-1810
▁chem	-1811
▁faaga	-1812
▁janoon	-1813
▁reeƭna	-1814
▁We	-1815
dain	-1816
▁pes	-1817
aasam	-1818
anaan	-1819
▁Paul	-1820
▁rass	-1821
▁lévites	-1822
Ab	-1823
Le	-1824
toi	-1825
oyez	-1826
▁Sim	-1827
▁fex	-1828
▁obé	-1829
aalbe	-1830
▁prov	-1831
▁ɗaay	-1832
▁cegel	-1833
ça	-1834
iir	-1835
▁ƭeet	-1836
▁confi	-1837
▁jegel	-1838
▁prati	-1839
▁rendre	-1840
▁vérité	-1841
ilistins	-1842
▁soƥangaa	-1843
lie	-1844
appr	-1845
▁déf	-1846
▁ƭom	-1847
▁ƴuf	-1848
▁aura	-1849
▁voir	-1850
▁premier	-1851
ole	-1852
tat	-1853
▁der	-1854
▁fid	-1855
▁ƥil	-1856
▁Baal	-1857
liance	-1858
né	-1859
▁:	-1860
isse	-1861
katee	-1862
▁song	-1863
▁Voici	-1864
ew	-1865
»,	-1866
▁Ƭ	-1867
ilà	-1868
nous	-1869
uuru	-1870
▁seed	-1871
âce	-1872
▁Que	-1873
▁far	-1874
▁niw	-1875
▁ƭak	-1876
▁alla	-1877
▁ƥetik	-1878
▁adooxan	-1879
ƥor	-1880
▁vu	-1881
tent	-1882
▁faɗ	-1883
▁chev	-1884
▁conc	-1885
▁nour	-1886
▁qool	-1887
▁vois	-1888
▁xire	-1889
irawon	-1890
▁Tous	-1891
▁prép	-1892
▁Yaaga	-1893
▁mbaal	-1894
andoong	-1895
▁depuis	-1896
▁mettre	-1897
▁Babylone	-1898
antes	-1899
▁cent	-1900
▁layu	-1901
▁ving	-1902
▁morts	-1903
▁Firawon	-1904
▁vol	-1905
anctu	-1906
▁prof	-1907
tement	-1908
▁coffre	-1909
▁sanctu	-1910
▁yirmande	-1911
maax	-1912
▁arka	-1913
▁ndim	-1914
▁année	-1915
▁ensuite	-1916
anj	-1917
lek	-1918
çon	-1919
▁bén	-1920
▁sox	-1921
▁cert	-1922
▁peur	-1923
▁yegnit	-1924
ct	-1925
vé	-1926
▁â	-1927
ché	-1928
▁fod	-1929
▁yaj	-1930
▁Yaam	-1931
▁lieu	-1932
▁waas	-1933
▁guerre	-1934
▁tuleer	-1935
▁vêtements	-1936
son	-1937
▁Eh	-1938
ivers	-1939
▁bois	-1940
▁prod	-1941
riture	-1942
▁barke	-1943
▁vingt	-1944
▁waxtu	-1945
▁Yoseef	-1946
▁également	-1947
▁Philistins	-1948
aƴ	-1949
▁jil	-1950
angin	-1951
erres	-1952
▁Tout	-1953
▁prend	-1954
anin	-1955
eras	-1956
▁cap	-1957
▁fav	-1958
iriiñ	-1959
▁fiis	-1960
▁hate	-1961
▁quoi	-1962
▁tigi	-1963
▁manif	-1964
▁tromp	-1965
▁chemin	-1966
▁heblit	-1967
▁maître	-1968
▁sanctuaire	-1969
avez	-1970
iste	-1971
▁Yow	-1972
▁déj	-1973
▁mbe	-1974
araon	-1975
▁ndik	-1976
▁situ	-1977
▁Pharaon	-1978
az	-1979
qe	-1980
ât	-1981
cev	-1982
mis	-1983
▁kas	-1984
▁mbod	-1985
▁péché	-1986
iennent	-1987
▁rendit	-1988
▁lorsque	-1989
▁royaume	-1990
▁travers	-1991
▁prophètes	-1992
rel	-1993
illa	-1994
▁nuu	-1995
▁foule	-1996
cha	-1997
▁Pi	-1998
erez	-1999
▁Qui	-2000
▁rab	-2001
▁yen	-2002
emble	-2003
▁Pool	-2004
▁fene	-2005
▁grâce	-2006
▁katil	-2007
▁mains	-2008
▁aujourd	-2009
onté	-2010
▁end	-2011
▁déjà	-2012
▁supp	-2013
▁ŋaay	-2014
ccup	-2015
▁Xar	-2016
▁yet	-2017
▁ngap	-2018
▁njal	-2019
▁parf	-2020
▁contin	-2021
▁trouver	-2022
▁puissance	-2023
▁seulement	-2024
▁naq	-2025
▁Jour	-2026
▁Josué	-2027
▁jeune	-2028
▁ndiiki	-2029
▁ennemis	-2030
▁rencontre	-2031
ic	-2032
▁li	-2033
ages	-2034
▁qeƭ	-2035
▁tik	-2036
▁ñis	-2037
issez	-2038
▁ware	-2039
▁Galaad	-2040
▁eetaand	-2041
▁malaaka	-2042
ood	-2043
▁pe	-2044
rage	-2045
sion	-2046
ulte	-2047
▁qol	-2048
▁mbid	-2049
▁annonc	-2050
▁fiisel	-2051
ela	-2052
una	-2053
▁Gu	-2054
leer	-2055
▁kur	-2056
anaam	-2057
▁haut	-2058
▁kene	-2059
▁koom	-2060
▁taxar	-2061
▁Pierre	-2062
▁duleer	-2063
▁retour	-2064
Tu	-2065
iñ	-2066
ide	-2067
keel	-2068
▁kañ	-2069
▁pog	-2070
▁rév	-2071
▁wid	-2072
iront	-2073
▁Yord	-2074
▁gimu	-2075
▁inter	-2076
▁Yordaan	-2077
▁Jourdain	-2078
mon	-2079
orter	-2080
▁anim	-2081
▁veux	-2082
▁selon	-2083
nin	-2084
ots	-2085
▁jaf	-2086
▁pai	-2087
▁cham	-2088
▁aller	-2089
ellement	-2090
ame	-2091
éra	-2092
▁tek	-2093
▁ñux	-2094
andaa	-2095
iidaa	-2096
ition	-2097
▁neew	-2098
▁nqot	-2099
▁rapp	-2100
▁cra	-2101
▁tém	-2102
ienne	-2103
iraam	-2104
▁nqaw	-2105
▁préc	-2106
▁escla	-2107
▁route	-2108
▁souff	-2109
▁voici	-2110
▁péchés	-2111
▁pierres	-2112
Il	-2113
aj	-2114
éci	-2115
▁Nuun	-2116
▁fête	-2117
▁mbel	-2118
▁njof	-2119
▁mbaas	-2120
▁esprit	-2121
ama	-2122
cul	-2123
imb	-2124
uus	-2125
inte	-2126
mêmes	-2127
▁batand	-2128
▁pierre	-2129
Xar	-2130
qua	-2131
aris	-2132
iles	-2133
écut	-2134
▁Neb	-2135
▁exp	-2136
▁fes	-2137
▁xul	-2138
andis	-2139
▁pens	-2140
▁perd	-2141
▁impur	-2142
▁juste	-2143
▁layna	-2144
▁mbaaƭ	-2145
▁recev	-2146
▁milieu	-2147
▁sutoox	-2148
▁jamaane	-2149
▁manière	-2150
!›	-2151
je	-2152
yet	-2153
▁Ng	-2154
▁id	-2155
Vous	-2156
ande	-2157
kaar	-2158
▁Dan	-2159
▁tor	-2160
▁yoɗ	-2161
▁ɓek	-2162
ordre	-2163
salom	-2164
▁clan	-2165
▁paal	-2166
▁rais	-2167
▁xool	-2168
▁charg	-2169
▁gloire	-2170
▁palais	-2171
▁pardon	-2172
▁compagn	-2173
▁enseign	-2174
!”	-2175
▁Mal	-2176
▁nax	-2177
ressa	-2178
▁chose	-2179
▁fokat	-2180
▁ngoor	-2181
▁sortir	-2182
▁ñaamel	-2183
Que	-2184
▁cri	-2185
▁nor	-2186
yetax	-2187
▁hebl	-2188
▁vint	-2189
▁xuluɓ	-2190
▁épous	-2191
ba	-2192
oam	-2193
▁Den	-2194
▁lib	-2195
orer	-2196
▁deɓ	-2197
veill	-2198
▁qeeñ	-2199
▁Ƭiif	-2200
▁règne	-2201
▁envoya	-2202
▁message	-2203
▁commandements	-2204
éf	-2205
uwe	-2206
▁sik	-2207
eenqe	-2208
▁joie	-2209
▁garde	-2210
▁ñuxur	-2211
issance	-2212
▁Yosuwe	-2213
th	-2214
ige	-2215
kin	-2216
▁dél	-2217
▁fum	-2218
▁kes	-2219
▁pat	-2220
▁pain	-2221
▁Quant	-2222
▁bêtes	-2223
▁naqad	-2224
▁endroit	-2225
▁malheur	-2226
sé	-2227
aga	-2228
gin	-2229
kiya	-2230
▁couv	-2231
▁fidè	-2232
▁muum	-2233
▁seek	-2234
▁halal	-2235
▁jegee	-2236
▁Bal	-2237
▁feet	-2238
▁mbes	-2239
▁coong	-2240
▁frapp	-2241
▁mirent	-2242
▁njegna	-2243
etandoox	-2244
▁nombreux	-2245
iel	-2246
ute	-2247
assé	-2248
leng	-2249
émie	-2250
▁yul	-2251
oient	-2252
▁Dans	-2253
▁waaƭ	-2254
▁pourra	-2255
▁peuples	-2256
jar	-2257
iend	-2258
oque	-2259
▁teɓ	-2260
▁paix	-2261
▁instal	-2262
atu	-2263
▁po	-2264
entrée	-2265
▁daalbe	-2266
▁entendu	-2267
▁sagesse	-2268
▁yeeyetax	-2269
eh	-2270
ann	-2271
jets	-2272
omin	-2273
▁Beth	-2274
▁nqaƴ	-2275
▁seede	-2276
▁anddil	-2277
▁anciens	-2278
▁demeure	-2279
▁ordonné	-2280
▁ñootnax	-2281
▁serviteurs	-2282
Wo	-2283
▁aj	-2284
▁Mes	-2285
▁luu	-2286
▁say	-2287
▁plac	-2288
▁reta	-2289
▁réserv	-2290
▁xanjar	-2291
▁présence	-2292
▁mè	-2293
▁ég	-2294
oorna	-2295
▁cinq	-2296
▁memb	-2297
▁mene	-2298
▁mout	-2299
▁ndab	-2300
▁ngay	-2301
▁trouve	-2302
▁vivant	-2303
▁ƭikandeer	-2304
obé	-2305
ours	-2306
▁Nab	-2307
armée	-2308
emain	-2309
jamin	-2310
kaand	-2311
▁ndew	-2312
▁douze	-2313
▁envers	-2314
▁partie	-2315
▁partir	-2316
ependant	-2317
▁vinrent	-2318
oub	-2319
▁eu	-2320
esse	-2321
▁Man	-2322
▁inc	-2323
▁ouv	-2324
▁ɓil	-2325
ettes	-2326
ussit	-2327
▁fond	-2328
▁soir	-2329
▁viol	-2330
▁wond	-2331
▁matin	-2332
▁filles	-2333
aac	-2334
gag	-2335
▁roy	-2336
▁six	-2337
▁taa	-2338
▁voy	-2339
Voici	-2340
▁nqeɗ	-2341
raient	-2342
▁biens	-2343
▁dépos	-2344
▁envoyé	-2345
▁Ƥeenqe	-2346
▁continu	-2347
▁njiriiñ	-2348
▁Benjamin	-2349
Éc	-2350
con	-2351
imé	-2352
atna	-2353
▁ndi	-2354
oboam	-2355
▁face	-2356
▁mooc	-2357
▁boire	-2358
▁malad	-2359
univers	-2360
▁autour	-2361
▁ndaxar	-2362
▁ordonna	-2363
▁mbokatax	-2364
▁Cependant	-2365
wl	-2366
ret	-2367
oles	-2368
▁Ser	-2369
▁Yeh	-2370
▁inf	-2371
▁kor	-2372
oorik	-2373
▁bord	-2374
▁sauv	-2375
▁façon	-2376
▁vivre	-2377
▁offert	-2378
▁andoona	-2379
▁anddiloor	-2380
Ne	-2381
oof	-2382
▁Ad	-2383
▁baa	-2384
▁sañ	-2385
▁sub	-2386
▁uns	-2387
wliin	-2388
▁gouv	-2389
érieur	-2390
▁faveur	-2391
▁ndeeƭu	-2392
▁purifi	-2393
▁respons	-2394
ék	-2395
▁Dès	-2396
argal	-2397
▁coon	-2398
▁Naaga	-2399
▁waaga	-2400
▁compte	-2401
▁ut	-2402
anel	-2403
gypt	-2404
upna	-2405
▁Lib	-2406
▁loin	-2407
▁nord	-2408
▁pron	-2409
issent	-2410
▁keeke	-2411
▁vient	-2412
▁écrit	-2413
ussitôt	-2414
▁promis	-2415
▁Jérémie	-2416
▁montagn	-2417
▁ndokand	-2418
▁manifest	-2419
▁sp	-2420
inna	-2421
▁Sil	-2422
▁vra	-2423
▁ajout	-2424
▁diwliin	-2425
▁étrangers	-2426
dit	-2427
auté	-2428
reet	-2429
uufe	-2430
▁esp	-2431
▁fix	-2432
▁jag	-2433
▁ƥax	-2434
▁kili	-2435
▁mbeq	-2436
▁saŋk	-2437
▁venu	-2438
▁cofel	-2439
▁sareet	-2440
▁Absalom	-2441
▁dalfooxa	-2442
aag	-2443
aré	-2444
tem	-2445
uel	-2446
▁Ham	-2447
▁pop	-2448
avoir	-2449
huile	-2450
▁Wiin	-2451
▁woor	-2452
▁coono	-2453
▁décid	-2454
▁entra	-2455
▁firent	-2456
▁déclara	-2457
▁gouvern	-2458
enc	-2459
▁em	-2460
fois	-2461
▁Mik	-2462
▁lim	-2463
▁pis	-2464
▁sud	-2465
▁anda	-2466
▁magn	-2467
▁ngid	-2468
▁succ	-2469
ensame	-2470
▁devint	-2471
▁travail	-2472
ni	-2473
per	-2474
sañ	-2475
▁.”	-2476
loox	-2477
▁Ref	-2478
▁paɗ	-2479
alaat	-2480
atoox	-2481
itaal	-2482
▁Joab	-2483
▁sign	-2484
▁ƥees	-2485
▁popul	-2486
▁yoqna	-2487
▁mourut	-2488
fil	-2489
irs	-2490
lir	-2491
lée	-2492
aala	-2493
este	-2494
onze	-2495
éens	-2496
▁mbuu	-2497
onneur	-2498
▁cents	-2499
étaient	-2500
▁bronze	-2501
▁inoora	-2502
▁inooxa	-2503
iig	-2504
œuf	-2505
▁ak	-2506
ahin	-2507
aint	-2508
▁ƥor	-2509
▁cuur	-2510
▁Hupna	-2511
▁lorsqu	-2512
▁tribus	-2513
▁conduis	-2514
▁offrandes	-2515
ïm	-2516
bas	-2517
bri	-2518
oud	-2519
qué	-2520
uma	-2521
▁Wo	-2522
▁Yo	-2523
iise	-2524
essus	-2525
ooraa	-2526
tuuna	-2527
▁Jean	-2528
▁méch	-2529
▁parl	-2530
▁safe	-2531
▁taaw	-2532
▁Saint	-2533
▁fumée	-2534
▁hebil	-2535
▁pieds	-2536
▁contra	-2537
▁faites	-2538
▁conduite	-2539
▁'	-2540
aaɗ	-2541
del	-2542
Pour	-2543
aara	-2544
iser	-2545
yrie	-2546
▁Yoy	-2547
▁déb	-2548
▁mange	-2549
▁racont	-2550
mb	-2551
tra	-2552
anim	-2553
▁aff	-2554
▁dét	-2555
▁gay	-2556
▁mud	-2557
▁bœuf	-2558
▁oluu	-2559
▁poss	-2560
▁wara	-2561
▁fabri	-2562
▁ferai	-2563
▁sembl	-2564
aamaala	-2565
pti	-2566
uuɗ	-2567
▁Or	-2568
Ndax	-2569
Nous	-2570
uben	-2571
▁dad	-2572
▁dév	-2573
▁tim	-2574
▁ƴut	-2575
outez	-2576
▁coll	-2577
▁fera	-2578
▁tant	-2579
▁bonne	-2580
▁force	-2581
▁onqaa	-2582
▁puuru	-2583
▁sorte	-2584
▁mbogna	-2585
▁nitaal	-2586
off	-2587
ser	-2588
ends	-2589
▁Yeg	-2590
▁tox	-2591
firme	-2592
▁maaf	-2593
▁maax	-2594
▁veut	-2595
▁déliv	-2596
▁njamb	-2597
▁serez	-2598
▁cuuraay	-2599
▁yaakaar	-2600
Nd	-2601
▁Abi	-2602
▁tre	-2603
▁yip	-2604
▁clans	-2605
▁ndoxel	-2606
▁ordres	-2607
▁waagna	-2608
▁Égypte	-2609
▁ñaamaa	-2610
▁tikoorik	-2611
ada	-2612
imp	-2613
igna	-2614
▁And	-2615
▁Une	-2616
▁miñ	-2617
▁rou	-2618
▁ŋat	-2619
▁laaw	-2620
▁aband	-2621
▁faute	-2622
▁reeƭa	-2623
▁tadaq	-2624
▁arriva	-2625
▁bargal	-2626
▁sabbat	-2627
▁ƥisiid	-2628
▁Pendant	-2629
▁quelque	-2630
▁év	-2631
aate	-2632
aful	-2633
yiif	-2634
▁dir	-2635
▁sak	-2636
▁ɗom	-2637
▁siir	-2638
angool	-2639
▁ngeen	-2640
▁aucune	-2641
▁yulanq	-2642
▁taamaala	-2643
▁répondirent	-2644
▁?	-2645
eeƈ	-2646
ataa	-2647
kiim	-2648
▁cig	-2649
▁dès	-2650
▁lev	-2651
termin	-2652
▁cinqu	-2653
▁mucil	-2654
▁naang	-2655
▁parle	-2656
▁refus	-2657
▁actions	-2658
▁membres	-2659
▁montagne	-2660
▁nouvelle	-2661
▁nourriture	-2662
00	-2663
▁jik	-2664
▁ver	-2665
▁ñof	-2666
tenir	-2667
▁front	-2668
▁confor	-2669
▁refangee	-2670
aaƈ	-2671
eec	-2672
ies	-2673
mer	-2674
ève	-2675
ainc	-2676
irai	-2677
▁bât	-2678
▁cir	-2679
▁cél	-2680
▁gén	-2681
▁nof	-2682
▁sem	-2683
▁xaa	-2684
avais	-2685
aître	-2686
▁cegu	-2687
▁fonc	-2688
▁ƭiif	-2689
accomp	-2690
▁nanan	-2691
▁villa	-2692
▁ndeeƭa	-2693
▁tandis	-2694
alliance	-2695
▁moutons	-2696
▁reconna	-2697
▁retourn	-2698
▁accompagn	-2699
▁connaître	-2700
Fat	-2701
aba	-2702
env	-2703
once	-2704
▁rax	-2705
▁veu	-2706
lisée	-2707
nooxu	-2708
▁surv	-2709
enfant	-2710
oivent	-2711
▁Weene	-2712
▁Yegil	-2713
▁nqoox	-2714
▁Lorsqu	-2715
▁apport	-2716
▁disant	-2717
▁répand	-2718
▁demande	-2719
Ba	-2720
rag	-2721
oilà	-2722
▁hon	-2723
▁top	-2724
▁dern	-2725
▁prêt	-2726
▁souv	-2727
▁sacré	-2728
▁saŋik	-2729
▁commis	-2730
▁parfum	-2731
▁porter	-2732
ayi	-2733
cep	-2734
anga	-2735
chet	-2736
▁Heb	-2737
▁cal	-2738
▁loc	-2739
▁suu	-2740
▁quar	-2741
▁voix	-2742
▁ñaang	-2743
endemain	-2744
▁geenoox	-2745
da	-2746
hon	-2747
ooƭ	-2748
éon	-2749
▁lu	-2750
ique	-2751
ribu	-2752
▁Saŋ	-2753
▁mag	-2754
▁ɓog	-2755
tient	-2756
▁fort	-2757
▁sour	-2758
▁toki	-2759
▁leene	-2760
▁taure	-2761
ouvelle	-2762
▁Samuel	-2763
▁jeunes	-2764
▁savoir	-2765
▁trouvait	-2766
”,	-2767
▁ir	-2768
▁dur	-2769
▁gef	-2770
▁ram	-2771
▁sip	-2772
▁kend	-2773
▁lors	-2774
▁qaaj	-2775
▁saƭk	-2776
▁Isaak	-2777
▁armée	-2778
▁culte	-2779
▁group	-2780
▁nanna	-2781
▁ƥaxañ	-2782
endroit	-2783
▁choses	-2784
▁destin	-2785
▁disait	-2786
▁droite	-2787
aintenant	-2788
uv	-2789
lev	-2790
wal	-2791
▁mé	-2792
clam	-2793
érit	-2794
▁Bar	-2795
▁pri	-2796
▁tab	-2797
andel	-2798
iller	-2799
▁Ceux	-2800
▁lene	-2801
▁yaaj	-2802
▁Ruben	-2803
▁autor	-2804
▁plein	-2805
▁repos	-2806
▁toxel	-2807
▁appela	-2808
▁sacrés	-2809
aajangin	-2810
▁quelques	-2811
▁population	-2812
adad	-2813
kiro	-2814
▁tus	-2815
▁Éli	-2816
isira	-2817
▁meur	-2818
dessus	-2819
▁champ	-2820
▁récol	-2821
▁Yaasam	-2822
▁njegel	-2823
Pourquoi	-2824
▁Manassé	-2825
▁Pourquoi	-2826
▁quarante	-2827
▁lendemain	-2828
▁nomtooxiid	-2829
?›	-2830
▁!	-2831
▁Ñ	-2832
nan	-2833
nir	-2834
odu	-2835
owam	-2836
▁dey	-2837
appel	-2838
temps	-2839
▁Miim	-2840
▁bouc	-2841
▁neen	-2842
▁tard	-2843
angaan	-2844
▁conse	-2845
▁écout	-2846
▁appelé	-2847
▁commet	-2848
▁offrir	-2849
▁passer	-2850
ili	-2851
fici	-2852
tice	-2853
écri	-2854
▁Des	-2855
▁min	-2856
andax	-2857
enand	-2858
▁gara	-2859
▁mbat	-2860
▁pauv	-2861
anaase	-2862
ootoox	-2863
▁Bonne	-2864
▁chass	-2865
▁instr	-2866
▁repas	-2867
▁saxad	-2868
▁warna	-2869
▁communi	-2870
▁yoonand	-2871
▁Nouvelle	-2872
▁allèrent	-2873
▁Miimisira	-2874
▁communion	-2875
▁contraire	-2876
▁longtemps	-2877
▁arrivèrent	-2878
uuɓ	-2879
▁ka	-2880
took	-2881
▁ind	-2882
▁lum	-2883
▁nqu	-2884
indre	-2885
▁amen	-2886
▁daaɓ	-2887
▁ngas	-2888
▁teex	-2889
▁refat	-2890
▁tafil	-2891
▁consid	-2892
▁idoles	-2893
▁objets	-2894
▁partit	-2895
▁reprit	-2896
▁viande	-2897
▁Manaase	-2898
▁Royaume	-2899
Ah	-2900
».	-2901
hat	-2902
lam	-2903
nel	-2904
ori	-2905
itié	-2906
tifi	-2907
▁Sal	-2908
▁blé	-2909
▁int	-2910
▁ñox	-2911
▁kaal	-2912
▁pros	-2913
▁heure	-2914
▁Égypt	-2915
▁Yeremi	-2916
▁genwal	-2917
▁humains	-2918
▁coupable	-2919
▁xoolaƭar	-2920
▁-	-2921
dom	-2922
zék	-2923
anda	-2924
arer	-2925
▁cré	-2926
▁lou	-2927
▁trô	-2928
▁ñuf	-2929
onner	-2930
▁jegu	-2931
▁nomt	-2932
▁vrai	-2933
▁ƭomu	-2934
▁laisse	-2935
▁recouv	-2936
▁trente	-2937
▁animaux	-2938
▁esclaves	-2939
▁pratique	-2940
isé	-2941
équ	-2942
euse	-2943
▁Mer	-2944
▁dak	-2945
▁lit	-2946
▁niɓ	-2947
▁sog	-2948
▁Moab	-2949
▁juni	-2950
▁mban	-2951
▁nqoy	-2952
▁trop	-2953
asnoor	-2954
prêtre	-2955
zékias	-2956
▁ngara	-2957
approch	-2958
▁akeene	-2959
▁messag	-2960
▁servir	-2961
▁pourtant	-2962
▁vraiment	-2963
Ass	-2964
asa	-2965
ture	-2966
▁gad	-2967
esses	-2968
étend	-2969
▁aluu	-2970
▁lang	-2971
▁roya	-2972
issait	-2973
obowam	-2974
▁Yowab	-2975
▁concl	-2976
▁passé	-2977
▁pours	-2978
▁royal	-2979
▁propos	-2980
▁visage	-2981
▁certain	-2982
▁qoolaand	-2983
▁nahkandeer	-2984
apt	-2985
non	-2986
▁!»	-2987
orce	-2988
▁Ces	-2989
▁cat	-2990
▁maî	-2991
asaar	-2992
avons	-2993
ueill	-2994
▁bête	-2995
▁chèv	-2996
▁mura	-2997
▁reçu	-2998
▁rond	-2999
▁sœur	-3000
▁vict	-3001
▁ƭing	-3002
aakoon	-3003
▁Cette	-3004
▁ndeta	-3005
▁mudand	-3006
▁prière	-3007
▁chercher	-3008
▁Yerobowam	-3009
An	-3010
”.	-3011
ele	-3012
▁Pr	-3013
▁sy	-3014
▁mur	-3015
▁croy	-3016
▁cadav	-3017
▁serai	-3018
akinoox	-3019
▁cherch	-3020
▁justes	-3021
▁nqoolu	-3022
▁oleene	-3023
▁laisser	-3024
ran	-3025
▁Nj	-3026
adab	-3027
asse	-3028
ense	-3029
▁div	-3030
occup	-3031
▁Maat	-3032
▁diid	-3033
▁mayƭ	-3034
▁siik	-3035
▁ɗuum	-3036
andoor	-3037
rèrent	-3038
▁Asuur	-3039
▁Yoona	-3040
▁axene	-3041
▁layit	-3042
▁poofi	-3043
affirme	-3044
▁choisi	-3045
▁vallée	-3046
édiction	-3047
▁lumière	-3048
cip	-3049
iiƭ	-3050
ult	-3051
▁ru	-3052
erci	-3053
ppos	-3054
▁His	-3055
▁aim	-3056
▁éch	-3057
eetar	-3058
resse	-3059
▁ceci	-3060
▁font	-3061
▁mboy	-3062
▁muur	-3063
▁ngor	-3064
▁xont	-3065
▁ƥeef	-3066
▁bonté	-3067
▁janga	-3068
▁layin	-3069
▁trône	-3070
▁xotit	-3071
▁ajouta	-3072
▁arrivé	-3073
▁règles	-3074
▁propres	-3075
▁Jéroboam	-3076
▁confiance	-3077
iƴ	-3078
eex	-3079
éta	-3080
▁yo	-3081
▁kim	-3082
▁wod	-3083
▁ñoq	-3084
▁Pind	-3085
▁kilo	-3086
▁cours	-3087
▁devra	-3088
▁impos	-3089
▁njeeƈ	-3090
▁Pharis	-3091
▁champs	-3092
▁désire	-3093
▁raison	-3094
▁Hiskiya	-3095
▁extermin	-3096
▁présenter	-3097
▁rendirent	-3098
iɗ	-3099
Kaa	-3100
aaƭ	-3101
erm	-3102
eug	-3103
lat	-3104
oram	-3105
▁doŋ	-3106
ahina	-3107
▁jamb	-3108
▁naaq	-3109
▁ñaaw	-3110
▁ƥaak	-3111
conque	-3112
▁Isaac	-3113
▁bugko	-3114
▁dépla	-3115
▁fruits	-3116
▁luliid	-3117
▁mbarna	-3118
▁portes	-3119
▁Élisée	-3120
▁Ngenand	-3121
▁serment	-3122
Am	-3123
Ar	-3124
ere	-3125
tez	-3126
ude	-3127
glis	-3128
▁Oui	-3129
▁Reh	-3130
▁inv	-3131
▁réf	-3132
iyeer	-3133
▁Quel	-3134
andoox	-3135
▁dalin	-3136
▁devez	-3137
▁ndaan	-3138
▁saint	-3139
oixante	-3140
▁attent	-3141
▁condam	-3142
▁Samarie	-3143
▁fortifi	-3144
▁Pourtant	-3145
▁troisième	-3146
▁compagnons	-3147
▁Ɓ	-3148
▁Av	-3149
▁loq	-3150
urité	-3151
▁Pers	-3152
▁cung	-3153
▁mbex	-3154
▁proc	-3155
▁vaut	-3156
▁étab	-3157
cation	-3158
▁inoox	-3159
▁local	-3160
▁humain	-3161
▁entière	-3162
▁inoorna	-3163
▁moocand	-3164
▁prononc	-3165
▁complets	-3166
▁soixante	-3167
▁reefandin	-3168
▁Égyptiens	-3169
▁demandèrent	-3170
Mi	-3171
ala	-3172
uve	-3173
yim	-3174
▁bl	-3175
▁pu	-3176
atri	-3177
quel	-3178
ébre	-3179
▁Saf	-3180
▁bél	-3181
▁eel	-3182
fraïm	-3183
kiran	-3184
▁Sime	-3185
▁dist	-3186
▁tuer	-3187
dnooxu	-3188
▁Voilà	-3189
▁feeke	-3190
▁ordre	-3191
▁salut	-3192
▁aleene	-3193
▁pièces	-3194
aandeena	-3195
▁xetteel	-3196
▁disaient	-3197
▁première	-3198
▁trouvaient	-3199
ij	-3200
aali	-3201
aban	-3202
ales	-3203
riit	-3204
▁goƭ	-3205
▁jou	-3206
▁kay	-3207
andan	-3208
▁demi	-3209
▁disc	-3210
▁kaso	-3211
▁saaw	-3212
▁tege	-3213
accord	-3214
mément	-3215
onatan	-3216
▁bœufs	-3217
▁refaa	-3218
▁Piyeer	-3219
▁leetar	-3220
▁permet	-3221
▁propri	-3222
▁Bensame	-3223
▁poursuiv	-3224
▁Maintenant	-3225
uy	-3226
hel	-3227
ree	-3228
dire	-3229
ombe	-3230
▁Asa	-3231
▁Fog	-3232
▁Nef	-3233
▁Pil	-3234
▁fag	-3235
▁kal	-3236
ettez	-3237
rière	-3238
étais	-3239
▁Efra	-3240
▁atte	-3241
▁circ	-3242
▁geek	-3243
▁ndad	-3244
▁xaad	-3245
▁andee	-3246
▁bugna	-3247
▁garaa	-3248
▁parlé	-3249
▁telle	-3250
▁viens	-3251
▁cooxin	-3252
▁emport	-3253
▁soient	-3254
▁waagee	-3255
▁justice	-3256
▁mbaɗoox	-3257
▁offrande	-3258
▁rassembl	-3259
▁personnes	-3260
No	-3261
èd	-3262
eeq	-3263
amsa	-3264
orge	-3265
▁dim	-3266
▁hel	-3267
▁lin	-3268
▁maƭ	-3269
▁ɓax	-3270
▁bout	-3271
▁comb	-3272
▁nqas	-3273
▁yegn	-3274
iendra	-3275
omment	-3276
ptième	-3277
▁Laban	-3278
▁aurez	-3279
▁mieux	-3280
▁venus	-3281
honneur	-3282
▁besoin	-3283
▁complè	-3284
▁grands	-3285
▁virent	-3286
▁doivent	-3287
▁maîtres	-3288
▁muumeen	-3289
▁convainc	-3290
▁njambaar	-3291
▁mbokatoor	-3292
▁ndalfooxa	-3293
ger	-3294
îné	-3295
ambe	-3296
amon	-3297
atta	-3298
esté	-3299
koog	-3300
▁can	-3301
▁sex	-3302
aanum	-3303
irang	-3304
noora	-3305
ôtres	-3306
▁luuƥ	-3307
▁njag	-3308
▁prot	-3309
▁util	-3310
▁avert	-3311
▁mbeeñ	-3312
▁pitié	-3313
▁ñoxor	-3314
▁fautes	-3315
▁niɓaan	-3316
▁soxodu	-3317
▁témoig	-3318
Seigneur	-3319
▁propriét	-3320
▁communauté	-3321
iil	-3322
ita	-3323
ode	-3324
uga	-3325
ène	-3326
▁In	-3327
▁Ob	-3328
▁rê	-3329
erna	-3330
gent	-3331
irez	-3332
onse	-3333
▁Est	-3334
▁pun	-3335
▁Ésa	-3336
▁ɗeg	-3337
adoor	-3338
tuuma	-3339
▁mosu	-3340
▁plut	-3341
agadil	-3342
▁Abram	-3343
▁anges	-3344
▁autel	-3345
▁ramen	-3346
▁puisse	-3347
Al	-3348
uw	-3349
rog	-3350
uuy	-3351
▁Ak	-3352
aron	-3353
chab	-3354
▁gas	-3355
▁jir	-3356
▁sép	-3357
ocher	-3358
▁aime	-3359
▁bras	-3360
▁gagn	-3361
▁mucl	-3362
▁mépr	-3363
▁nqes	-3364
instal	-3365
▁chang	-3366
▁daduk	-3367
▁march	-3368
▁salma	-3369
▁saƭik	-3370
▁tegeƴ	-3371
▁Samari	-3372
▁enfant	-3373
▁ndabid	-3374
▁sortit	-3375
▁annoncé	-3376
▁cednooxu	-3377
▁familles	-3378
▁mauvaise	-3379
▁combattre	-3380
▁ndadkandeer	-3381
isa	-3382
lés	-3383
oré	-3384
zar	-3385
anna	-3386
dook	-3387
ince	-3388
land	-3389
▁Jeg	-3390
▁Tim	-3391
▁duq	-3392
▁dém	-3393
▁nam	-3394
▁rej	-3395
▁ɗas	-3396
▁cofu	-3397
▁dois	-3398
▁gaci	-3399
▁mesu	-3400
▁sent	-3401
ooxaam	-3402
▁chant	-3403
▁coups	-3404
▁croix	-3405
▁hebla	-3406
▁nandu	-3407
▁nqaad	-3408
▁oxene	-3409
▁point	-3410
▁signe	-3411
▁voulu	-3412
▁étern	-3413
▁auront	-3414
▁valeur	-3415
▁Efrayim	-3416
▁chevaux	-3417
▁pangool	-3418
▁profond	-3419
▁puisque	-3420
▁rapport	-3421
▁remerci	-3422
▁troupes	-3423
▁attaquer	-3424
▁cinquante	-3425
▁Pharisiens	-3426
eñ	-3427
att	-3428
ive	-3429
lui	-3430
oun	-3431
raa	-3432
ram	-3433
waa	-3434
alak	-3435
keer	-3436
prim	-3437
tali	-3438
▁Har	-3439
▁Sem	-3440
oires	-3441
tront	-3442
écria	-3443
▁lois	-3444
▁peux	-3445
▁ress	-3446
▁xaaj	-3447
▁ƭool	-3448
ration	-3449
▁dress	-3450
▁mukit	-3451
▁table	-3452
▁voilà	-3453
▁woora	-3454
▁ƥetaq	-3455
avaient	-3456
▁saawit	-3457
▁toodook	-3458
▁Aussitôt	-3459
▁alliance	-3460
▁consacré	-3461
▁troupeaux	-3462
▁conformément	-3463
iz	-3464
uɗ	-3465
éa	-3466
git	-3467
ibe	-3468
iri	-3469
lax	-3470
oux	-3471
rac	-3472
sie	-3473
éba	-3474
▁Éc	-3475
aiss	-3476
rais	-3477
rons	-3478
▁Per	-3479
▁Sad	-3480
▁Sin	-3481
▁ait	-3482
▁beg	-3483
▁kon	-3484
▁rel	-3485
▁sin	-3486
Quand	-3487
ootar	-3488
▁Ahab	-3489
▁déch	-3490
▁géné	-3491
▁mass	-3492
▁mber	-3493
▁meen	-3494
▁pard	-3495
▁vent	-3496
▁Élie	-3497
emblée	-3498
▁aveug	-3499
▁kalal	-3500
▁kilos	-3501
▁mbara	-3502
▁pains	-3503
▁pouss	-3504
▁simat	-3505
▁torox	-3506
▁déport	-3507
▁prison	-3508
▁succéd	-3509
▁ñaaƴaa	-3510
▁commenc	-3511
▁esprits	-3512
▁tombeau	-3513
▁viendra	-3514
▁compatri	-3515
▁ngeenoox	-3516
yr	-3517
ega	-3518
esp	-3519
ofor	-3520
titu	-3521
▁Bes	-3522
▁cav	-3523
▁sib	-3524
▁vas	-3525
Aaron	-3526
oleil	-3527
▁conf	-3528
▁moos	-3529
▁tent	-3530
▁ndiik	-3531
▁neeke	-3532
▁rendu	-3533
▁resta	-3534
▁révél	-3535
▁soxla	-3536
▁warel	-3537
adressa	-3538
illeurs	-3539
▁allait	-3540
▁apprit	-3541
▁devenu	-3542
▁offici	-3543
▁soumis	-3544
▁sutoor	-3545
ofornoor	-3546
▁pourrait	-3547
▁retourna	-3548
▁septième	-3549
▁mbaɗooxaa	-3550
gu	-3551
Xam	-3552
eti	-3553
oua	-3554
▁él	-3555
fils	-3556
ifie	-3557
ooxu	-3558
▁agn	-3559
amour	-3560
enait	-3561
irand	-3562
naxam	-3563
érieu	-3564
▁muuk	-3565
▁pleu	-3566
nooraa	-3567
▁genna	-3568
▁êtres	-3569
oogeena	-3570
▁mètres	-3571
▁surviv	-3572
▁rassemb	-3573
▁volonté	-3574
▁Ézékias	-3575
▁ensemble	-3576
▁frontière	-3577
▁construire	-3578
arr	-3579
erc	-3580
eth	-3581
goy	-3582
uut	-3583
aleb	-3584
bres	-3585
nand	-3586
osor	-3587
waab	-3588
▁cru	-3589
▁moy	-3590
▁ois	-3591
ience	-3592
ouest	-3593
▁Silo	-3594
▁bapt	-3595
▁jofu	-3596
▁maam	-3597
▁toox	-3598
eurent	-3599
▁occup	-3600
▁régna	-3601
▁seule	-3602
▁Mowaab	-3603
▁bouche	-3604
▁entrer	-3605
▁second	-3606
▁yaajel	-3607
▁apootar	-3608
▁mbindel	-3609
▁ñagadil	-3610
▁particul	-3611
Mon	-3612
ane	-3613
iib	-3614
nag	-3615
uul	-3616
évi	-3617
▁Jé	-3618
▁pâ	-3619
aide	-3620
erra	-3621
naak	-3622
odon	-3623
ukad	-3624
▁cas	-3625
▁fig	-3626
▁neu	-3627
abord	-3628
ituel	-3629
▁Lévi	-3630
▁dieu	-3631
▁mots	-3632
▁njik	-3633
▁tort	-3634
▁tran	-3635
nesaar	-3636
ucodon	-3637
▁begax	-3638
▁envir	-3639
▁seras	-3640
▁waare	-3641
monites	-3642
▁Samson	-3643
▁abomin	-3644
▁axeene	-3645
▁celles	-3646
▁devait	-3647
▁levain	-3648
▁plutôt	-3649
▁représ	-3650
▁Nebukad	-3651
▁Neftali	-3652
▁accordé	-3653
▁mayƭand	-3654
▁campagne	-3655
ucodonosor	-3656
▁gofornoor	-3657
▁wetandoox	-3658
▁Nabucodonosor	-3659
▁Nebukadnesaar	-3660
Nu	-3661
ich	-3662
oos	-3663
▁Me	-3664
kang	-3665
oign	-3666
▁Dam	-3667
▁Sab	-3668
▁ked	-3669
▁uum	-3670
▁yax	-3671
araam	-3672
▁Muum	-3673
▁Ndak	-3674
▁arra	-3675
▁jeta	-3676
▁leva	-3677
▁malh	-3678
▁mbaƭ	-3679
▁moƴu	-3680
eefeer	-3681
▁Hanan	-3682
▁côtés	-3683
▁savez	-3684
araître	-3685
érieure	-3686
▁Canaan	-3687
▁argent	-3688
▁mbidna	-3689
▁pindel	-3690
▁yetoox	-3691
▁obtenir	-3692
▁donnerai	-3693
▁montagnes	-3694
Les	-3695
cri	-3696
iiw	-3697
▁Ay	-3698
anee	-3699
aria	-3700
maam	-3701
onnu	-3702
teur	-3703
waar	-3704
▁Mat	-3705
▁Sik	-3706
▁Yab	-3707
▁cér	-3708
▁réd	-3709
▁tel	-3710
anong	-3711
ument	-3712
▁sois	-3713
esprit	-3714
istres	-3715
oorand	-3716
▁amour	-3717
▁honte	-3718
▁nogoy	-3719
▁quant	-3720
▁révol	-3721
▁dispos	-3722
▁fidèle	-3723
▁import	-3724
▁ngaraa	-3725
▁soleil	-3726
▁mesures	-3727
▁taureau	-3728
▁premiers	-3729
▁ndefeerna	-3730
iƈ	-3731
éh	-3732
aaƴ	-3733
bal	-3734
eeg	-3735
iiy	-3736
obs	-3737
rét	-3738
sse	-3739
atir	-3740
oche	-3741
uses	-3742
êter	-3743
▁Bas	-3744
▁Noé	-3745
▁nat	-3746
▁oub	-3747
▁xañ	-3748
amori	-3749
ieuse	-3750
▁Ahas	-3751
▁Mbiñ	-3752
▁Yuuy	-3753
▁ange	-3754
▁sens	-3755
Maître	-3756
imélek	-3757
inrent	-3758
orites	-3759
époque	-3760
▁Galil	-3761
▁caate	-3762
▁laamt	-3763
▁morce	-3764
▁nqaañ	-3765
▁saqna	-3766
▁égard	-3767
▁famine	-3768
▁interv	-3769
▁ndimle	-3770
▁conséqu	-3771
▁parents	-3772
▁respect	-3773
?”	-3774
En	-3775
aƭ	-3776
he	-3777
ote	-3778
ris	-3779
Kaam	-3780
edek	-3781
exem	-3782
lier	-3783
▁ber	-3784
▁gat	-3785
▁por	-3786
▁put	-3787
▁reb	-3788
▁red	-3789
▁xox	-3790
▁ƈut	-3791
sible	-3792
▁Sami	-3793
▁amis	-3794
▁bele	-3795
▁dira	-3796
▁faux	-3797
▁suur	-3798
animal	-3799
ooxiid	-3800
▁chars	-3801
▁emmen	-3802
▁ndiid	-3803
▁étend	-3804
▁décidé	-3805
▁désign	-3806
▁désobé	-3807
▁foncti	-3808
▁posséd	-3809
▁proche	-3810
▁sortes	-3811
▁njofaƭar	-3812
▁troupeau	-3813
▁(	-3814
aaf	-3815
aur	-3816
ley	-3817
nés	-3818
ouch	-3819
ucil	-3820
▁Gad	-3821
▁Mee	-3822
▁men	-3823
▁owe	-3824
▁pré	-3825
▁ɗox	-3826
lever	-3827
sions	-3828
▁Isma	-3829
▁glor	-3830
▁indi	-3831
▁mbaq	-3832
▁ndag	-3833
▁nene	-3834
▁rimu	-3835
▁soin	-3836
ajesté	-3837
mettre	-3838
tellig	-3839
▁soyez	-3840
▁tourn	-3841
▁ɗelem	-3842
▁Daniel	-3843
▁charge	-3844
▁massac	-3845
▁nation	-3846
▁olaaga	-3847
▁pleine	-3848
▁posses	-3849
▁complet	-3850
▁fadiida	-3851
▁torrent	-3852
▁Yuuyudaa	-3853
▁demander	-3854
▁intellig	-3855
▁recevoir	-3856
▁xarɓaxayandeer	-3857
où	-3858
▁œ	-3859
Boo	-3860
Toi	-3861
auc	-3862
eté	-3863
gal	-3864
yri	-3865
ège	-3866
èle	-3867
▁sû	-3868
aana	-3869
aque	-3870
ccas	-3871
umes	-3872
▁Sod	-3873
▁Yot	-3874
▁arr	-3875
▁cur	-3876
▁fal	-3877
▁muñ	-3878
▁wet	-3879
▁ƥon	-3880
ariya	-3881
glise	-3882
habit	-3883
ision	-3884
ébron	-3885
▁Eley	-3886
▁Eliy	-3887
▁bles	-3888
▁cini	-3889
▁cris	-3890
▁faib	-3891
▁hors	-3892
▁xona	-3893
entend	-3894
▁lieux	-3895
▁Kanaan	-3896
▁arrive	-3897
▁chargé	-3898
▁instru	-3899
▁matiid	-3900
▁onqene	-3901
▁sauver	-3902
▁donnera	-3903
▁nomtiid	-3904
▁pourrez	-3905
▁prirent	-3906
▁Ammonites	-3907
▁direction	-3908
▁messagers	-3909
all	-3910
par	-3911
▁Ag	-3912
▁Az	-3913
▁Ed	-3914
▁Ma	-3915
añel	-3916
hate	-3917
oins	-3918
▁Bét	-3919
▁Ged	-3920
▁Her	-3921
▁Yoh	-3922
▁dom	-3923
▁gil	-3924
▁obs	-3925
Keeke	-3926
élite	-3927
▁Ofra	-3928
▁Saas	-3929
▁agit	-3930
▁diff	-3931
▁mett	-3932
▁ngeb	-3933
▁rang	-3934
▁stat	-3935
▁ɓaat	-3936
▁Elles	-3937
▁Natan	-3938
▁Refee	-3939
▁ndoki	-3940
▁plaça	-3941
▁quest	-3942
▁recom	-3943
▁viend	-3944
▁vieux	-3945
enseign	-3946
▁attend	-3947
▁cangin	-3948
▁farine	-3949
▁pouvez	-3950
▁rester	-3951
▁Galilée	-3952
▁courage	-3953
▁dispers	-3954
▁détourn	-3955
▁offerts	-3956
▁proclam	-3957
▁derrière	-3958
▁villages	-3959
▁ɗikandeer	-3960
▁complètement	-3961
ca	-3962
›,	-3963
awu	-3964
ila	-3965
orm	-3966
uil	-3967
aaku	-3968
illé	-3969
▁Kam	-3970
▁Ses	-3971
▁Sid	-3972
▁Sur	-3973
▁fou	-3974
▁hap	-3975
▁pén	-3976
akaad	-3977
auche	-3978
eseer	-3979
égard	-3980
ément	-3981
▁Kaak	-3982
▁biim	-3983
▁cess	-3984
▁maas	-3985
▁priv	-3986
▁Esawu	-3987
▁coupe	-3988
▁forme	-3989
▁solen	-3990
▁tombe	-3991
Assyrie	-3992
▁Hebron	-3993
▁cigdel	-3994
▁qalaat	-3995
▁recher	-3996
▁riches	-3997
▁tenait	-3998
▁daaɓoox	-3999
▁demandé	-4000
▁envoyés	-4001
▁oiseaux	-4002
▁prisonn	-4003
▁wondoox	-4004
▁xontoox	-4005
▁Muumucil	-4006
▁Yoonatan	-4007
▁colonnes	-4008
▁promesse	-4009
▁victoire	-4010
▁mbadiidna	-4011
▁naissance	-4012
▁possession	-4013
Mb	-4014
Pr	-4015
cho	-4016
erç	-4017
exp	-4018
ffi	-4019
ooɗ	-4020
▁Fa	-4021
▁Là	-4022
leur	-4023
nage	-4024
ulon	-4025
vaux	-4026
▁gel	-4027
▁tol	-4028
▁ƭeg	-4029
ister	-4030
lazar	-4031
nooxa	-4032
▁Gibe	-4033
▁Mika	-4034
▁isra	-4035
▁laqu	-4036
sement	-4037
Éfraïm	-4038
▁Simon	-4039
▁Toute	-4040
▁cesse	-4041
▁deuil	-4042
▁ferme	-4043
▁jofna	-4044
▁mosee	-4045
iendrai	-4046
▁dirige	-4047
▁nandna	-4048
▁rituel	-4049
▁tomber	-4050
▁Yohanan	-4051
▁apôtres	-4052
▁circonc	-4053
▁jasnoor	-4054
▁maisons	-4055
▁partout	-4056
▁travaux	-4057
▁vivants	-4058
▁Personne	-4059
▁laquelle	-4060
▁officiers	-4061
▁semblable	-4062
ey	-4063
aie	-4064
ani	-4065
jou	-4066
▁us	-4067
Abra	-4068
bout	-4069
incl	-4070
ogoy	-4071
otes	-4072
▁Has	-4073
▁Hes	-4074
▁Xew	-4075
▁Yis	-4076
▁deŋ	-4077
▁hor	-4078
▁imm	-4079
▁jaw	-4080
▁kac	-4081
▁lax	-4082
▁néc	-4083
▁riv	-4084
▁tot	-4085
▁xir	-4086
▁ƥek	-4087
duufe	-4088
kaxam	-4089
▁Mexe	-4090
▁cach	-4091
▁guér	-4092
▁nqet	-4093
▁pres	-4094
▁renv	-4095
▁retr	-4096
▁roka	-4097
▁sage	-4098
toogna	-4099
▁Mispa	-4100
▁domin	-4101
▁fadin	-4102
▁kesan	-4103
▁nqaaj	-4104
▁parig	-4105
▁quitt	-4106
▁rejet	-4107
Abraham	-4108
▁Josias	-4109
▁debout	-4110
▁groupe	-4111
▁laamit	-4112
▁mbugko	-4113
▁paaxel	-4114
▁précéd	-4115
▁époque	-4116
▁attribu	-4117
▁connais	-4118
intérieur	-4119
▁muraille	-4120
▁faaxeerna	-4121
▁compatriotes	-4122
▁instructions	-4123
Va	-4124
oñ	-4125
Oui	-4126
pes	-4127
levé	-4128
ueil	-4129
ulti	-4130
émon	-4131
▁Fop	-4132
▁sam	-4133
ances	-4134
avant	-4135
oorit	-4136
ooxin	-4137
▁bran	-4138
▁dess	-4139
▁faam	-4140
▁gamb	-4141
▁liit	-4142
▁pare	-4143
▁réun	-4144
▁ƥeer	-4145
▁Barna	-4146
▁abond	-4147
▁allez	-4148
▁bâton	-4149
▁dites	-4150
▁désir	-4151
▁fourn	-4152
▁ndoof	-4153
▁pambe	-4154
▁payer	-4155
▁tuufe	-4156
▁ƥonax	-4157
arèrent	-4158
ccasion	-4159
▁Merari	-4160
▁Messie	-4161
▁arbres	-4162
▁durant	-4163
▁trouva	-4164
appelait	-4165
▁voisins	-4166
▁certains	-4167
▁gouverneur	-4168
ƈa	-4169
▁Q	-4170
daa	-4171
zer	-4172
êch	-4173
liqu	-4174
▁Kuu	-4175
▁but	-4176
▁laq	-4177
▁pub	-4178
▁tuñ	-4179
▁weg	-4180
enant	-4181
onstr	-4182
reuve	-4183
▁Jéri	-4184
▁fang	-4185
▁gros	-4186
▁juge	-4187
▁parv	-4188
▁vend	-4189
keerna	-4190
▁Comme	-4191
▁achet	-4192
▁effec	-4193
▁fogna	-4194
▁nahaq	-4195
▁reçut	-4196
▁tremb	-4197
▁waagu	-4198
▁yegna	-4199
▁consul	-4200
▁kurwaa	-4201
▁mbugna	-4202
▁quelle	-4203
▁royale	-4204
▁écoute	-4205
▁Jéricho	-4206
▁bonheur	-4207
▁chèvres	-4208
▁détruire	-4209
▁jegeerna	-4210
▁descendant	-4211
▁montagneuse	-4212
oɓ	-4213
pe	-4214
Non	-4215
iit	-4216
ini	-4217
inq	-4218
iqu	-4219
uuf	-4220
assi	-4221
chem	-4222
erch	-4223
▁Ndi	-4224
▁Son	-4225
▁bas	-4226
▁dol	-4227
▁pag	-4228
▁xas	-4229
assin	-4230
ignes	-4231
iques	-4232
riers	-4233
zième	-4234
étail	-4235
▁faim	-4236
▁monj	-4237
▁ndaw	-4238
▁pois	-4239
▁voud	-4240
▁ɗuga	-4241
kanaan	-4242
Église	-4243
▁Dañel	-4244
▁Kaaga	-4245
▁Teeru	-4246
▁assis	-4247
▁belle	-4248
▁cieux	-4249
▁mbuux	-4250
▁moins	-4251
▁peine	-4252
▁provo	-4253
▁tegit	-4254
▁vigne	-4255
maamaad	-4256
▁Chaque	-4257
▁Galile	-4258
▁bétail	-4259
▁petits	-4260
▁quitta	-4261
▁Jonatan	-4262
▁inooxan	-4263
▁maadoox	-4264
▁personn	-4265
▁secours	-4266
▁suivant	-4267
▁croyants	-4268
▁signifie	-4269
▁siiknoor	-4270
▁ƥeeraamb	-4271
▁Eleyasaar	-4272
▁Kaakanaan	-4273
▁conduisit	-4274
▁ministres	-4275
▁accompagné	-4276
▁responsable	-4277
aŋ	-4278
uq	-4279
adi	-4280
iiƥ	-4281
ooñ	-4282
▁Ga	-4283
▁fe	-4284
Roog	-4285
akim	-4286
alde	-4287
arri	-4288
iram	-4289
lent	-4290
rant	-4291
▁Mak	-4292
▁Net	-4293
▁Sef	-4294
▁fil	-4295
▁lar	-4296
▁tas	-4297
▁tué	-4298
aamoo	-4299
onnés	-4300
toogu	-4301
▁Lewi	-4302
▁Naam	-4303
▁aide	-4304
▁huit	-4305
▁moit	-4306
▁rent	-4307
▁trés	-4308
▁épée	-4309
aariit	-4310
oortaa	-4311
érance	-4312
▁Hadad	-4313
▁Rehab	-4314
▁fambe	-4315
▁guéri	-4316
▁moyen	-4317
▁pasar	-4318
▁riche	-4319
▁taaga	-4320
▁tadak	-4321
istoire	-4322
▁Yosiya	-4323
▁bélier	-4324
▁défaut	-4325
▁malade	-4326
▁mbaaga	-4327
▁nature	-4328
▁source	-4329
▁wetand	-4330
▁xoyeel	-4331
▁ƈufgin	-4332
▁conduit	-4333
▁crainte	-4334
▁déclaré	-4335
▁ƈufnand	-4336
▁ɓoxotel	-4337
▁Amorites	-4338
▁viennent	-4339
▁abominables	-4340
Xan	-4341
mel	-4342
org	-4343
uir	-4344
umb	-4345
▁jo	-4346
abel	-4347
afat	-4348
angi	-4349
etyo	-4350
fort	-4351
érer	-4352
▁Gui	-4353
▁Séd	-4354
▁inn	-4355
▁mau	-4356
▁org	-4357
▁sag	-4358
▁yar	-4359
Daali	-4360
aller	-4361
appar	-4362
ateur	-4363
isans	-4364
melek	-4365
écias	-4366
écout	-4367
▁batt	-4368
▁chér	-4369
▁liiƥ	-4370
▁mens	-4371
▁nqeñ	-4372
▁sait	-4373
▁tiiƭ	-4374
▁vont	-4375
issant	-4376
▁Faris	-4377
▁convo	-4378
▁doona	-4379
▁lampa	-4380
▁laver	-4381
▁olene	-4382
▁remet	-4383
▁ruine	-4384
▁taxna	-4385
▁topat	-4386
▁weeke	-4387
▁widna	-4388
▁exécut	-4389
▁faaxna	-4390
▁mbuuru	-4391
▁ndefat	-4392
▁savons	-4393
▁transp	-4394
▁échapp	-4395
▁connaît	-4396
▁déplaît	-4397
▁monjong	-4398
▁ndefkaa	-4399
▁réponse	-4400
▁Farisiya	-4401
▁Sédécias	-4402
▁entendit	-4403
▁mauvaises	-4404
▁représent	-4405
▁appartient	-4406
iko	-4407
oid	-4408
uie	-4409
▁Pâ	-4410
▁Ya	-4411
Nuun	-4412
assa	-4413
erbe	-4414
reux	-4415
rées	-4416
sons	-4417
▁Kar	-4418
▁Lak	-4419
▁Sak	-4420
▁Tam	-4421
▁Yob	-4422
▁kaf	-4423
▁sed	-4424
aille	-4425
nagog	-4426
nooxi	-4427
uisit	-4428
▁Maam	-4429
▁Zach	-4430
▁mele	-4431
▁nana	-4432
▁yuuɓ	-4433
▁ñaaƈ	-4434
amaane	-4435
▁Pâque	-4436
▁dalna	-4437
▁mante	-4438
▁maxan	-4439
▁mbaaf	-4440
▁ndaaɓ	-4441
▁ngung	-4442
▁njega	-4443
▁yeraa	-4444
exemple	-4445
▁Béthel	-4446
▁autant	-4447
▁chérub	-4448
▁lettre	-4449
▁livrer	-4450
▁moitié	-4451
▁parent	-4452
▁terres	-4453
▁chargés	-4454
▁cérémon	-4455
▁faisait	-4456
▁grandes	-4457
▁mbakaad	-4458
▁retrouv	-4459
▁synagog	-4460
▁Saasadax	-4461
▁entendre	-4462
▁mberaand	-4463
▁daawnaxam	-4464
▁localités	-4465
ût	-4466
keƥ	-4467
née	-4468
ule	-4469
ède	-4470
▁ve	-4471
agit	-4472
quim	-4473
▁Géd	-4474
▁Hil	-4475
▁Mon	-4476
▁Seb	-4477
▁jol	-4478
▁qac	-4479
▁rox	-4480
▁tal	-4481
aaxiɗ	-4482
adian	-4483
ooxel	-4484
ourag	-4485
▁Jéhu	-4486
▁Xeet	-4487
▁faaf	-4488
▁faan	-4489
▁fleu	-4490
▁letu	-4491
▁njib	-4492
▁rich	-4493
▁yaar	-4494
▁yong	-4495
▁évén	-4496
yriens	-4497
▁Betel	-4498
▁assez	-4499
▁kurul	-4500
▁njaaƈ	-4501
▁passa	-4502
▁plais	-4503
▁prêts	-4504
▁train	-4505
▁Gédéon	-4506
▁adress	-4507
▁brûler	-4508
▁fadiid	-4509
▁njegee	-4510
▁rokoox	-4511
▁suppli	-4512
Écriture	-4513
▁fidèles	-4514
▁layaxam	-4515
▁restera	-4516
▁revenir	-4517
▁semaine	-4518
▁sutooxa	-4519
assemblée	-4520
▁accomplir	-4521
▁mbaasnoor	-4522
▁nqoolaƭar	-4523
▁éternelle	-4524
▁témoignage	-4525
Par	-4526
ect	-4527
eñu	-4528
lac	-4529
tik	-4530
ulé	-4531
▁Ou	-4532
lera	-4533
oron	-4534
taam	-4535
▁pañ	-4536
▁soi	-4537
▁toq	-4538
aphat	-4539
élité	-4540
▁Mari	-4541
▁four	-4542
▁jure	-4543
▁lula	-4544
▁mets	-4545
▁onqu	-4546
▁oxey	-4547
▁prie	-4548
▁préf	-4549
▁rêve	-4550
curité	-4551
oorooƭ	-4552
▁accep	-4553
▁fasse	-4554
▁geste	-4555
▁meleƈ	-4556
▁trait	-4557
aaxoong	-4558
▁adorer	-4559
▁eurent	-4560
▁layaam	-4561
▁marche	-4562
▁prends	-4563
▁rabdin	-4564
▁revint	-4565
▁venait	-4566
▁vision	-4567
▁Élazar	-4568
eusement	-4569
▁camaane	-4570
▁contenu	-4571
▁kasaara	-4572
▁naqadil	-4573
▁ndeefaa	-4574
▁parlait	-4575
▁rondand	-4576
▁Josaphat	-4577
▁Kaakalde	-4578
▁teɓandoong	-4579
wa	-4580
▁Ɗ	-4581
cit	-4582
eej	-4583
oum	-4584
▁Ee	-4585
▁Tr	-4586
▁tâ	-4587
ajan	-4588
cept	-4589
▁Yee	-4590
▁lok	-4591
ences	-4592
êcher	-4593
▁Aasa	-4594
▁Goor	-4595
▁Obed	-4596
▁Safe	-4597
▁canj	-4598
▁fini	-4599
▁naak	-4600
▁qoor	-4601
▁ñaas	-4602
anjang	-4603
ourage	-4604
▁Marie	-4605
▁Sedek	-4606
▁diffi	-4607
▁engag	-4608
▁lalit	-4609
▁remar	-4610
▁suite	-4611
kataand	-4612
▁Pilate	-4613
▁années	-4614
▁détres	-4615
▁entier	-4616
▁entraî	-4617
▁mépris	-4618
▁naagee	-4619
▁njelem	-4620
▁oxaaga	-4621
▁pauvre	-4622
▁réalis	-4623
▁voyage	-4624
aabakaad	-4625
gilooxyo	-4626
▁Yosafat	-4627
▁entrepr	-4628
▁peuvent	-4629
▁Sedekiya	-4630
▁jugement	-4631
▁mbelakin	-4632
▁richesses	-4633
▁trompette	-4634
eeb	-4635
iiɓ	-4636
ppe	-4637
âge	-4638
▁od	-4639
Reti	-4640
arim	-4641
erne	-4642
ewam	-4643
koor	-4644
ooxe	-4645
ooxi	-4646
oyer	-4647
uira	-4648
▁Nah	-4649
▁cok	-4650
▁hab	-4651
▁mot	-4652
▁peg	-4653
▁sot	-4654
inter	-4655
ordok	-4656
sière	-4657
▁duuf	-4658
▁ngoƭ	-4659
▁Ofrat	-4660
▁Syrie	-4661
▁accus	-4662
▁cooxa	-4663
▁layum	-4664
▁leeke	-4665
▁nqire	-4666
▁pièce	-4667
▁prier	-4668
▁rouge	-4669
▁Sikeem	-4670
▁Yeriko	-4671
▁inflig	-4672
▁mbaqaq	-4673
▁offrit	-4674
▁trouvé	-4675
▁Judéens	-4676
▁cherche	-4677
▁dernier	-4678
▁parfait	-4679
▁Zacharie	-4680
▁aussitôt	-4681
▁autorité	-4682
▁morceaux	-4683
▁méchants	-4684
▁prostitu	-4685
▁reconstr	-4686
▁trouvent	-4687
▁Rehabewam	-4688
▁bienveill	-4689
▁muukandoong	-4690
hi	-4691
ici	-4692
qui	-4693
tés	-4694
uuq	-4695
éel	-4696
▁?»	-4697
aare	-4698
adan	-4699
eeba	-4700
vant	-4701
éger	-4702
▁agi	-4703
▁bal	-4704
▁cit	-4705
▁cre	-4706
▁liƥ	-4707
▁rid	-4708
▁ƥog	-4709
aajal	-4710
aisse	-4711
euses	-4712
orité	-4713
▁Mard	-4714
▁njil	-4715
▁ƭaaɗ	-4716
lèrent	-4717
▁Achab	-4718
▁Eliya	-4719
▁demeu	-4720
▁infor	-4721
▁lance	-4722
▁ngate	-4723
▁onquu	-4724
▁réjou	-4725
▁sabab	-4726
▁tabax	-4727
ordokay	-4728
▁Benaya	-4729
▁maadna	-4730
▁mbanuu	-4731
▁serait	-4732
▁située	-4733
▁vivent	-4734
▁épouse	-4735
histoire	-4736
▁affaire	-4737
▁agneaux	-4738
▁andnoor	-4739
▁cadavre	-4740
▁environ	-4741
▁esclave	-4742
▁heureux	-4743
▁onqeene	-4744
▁pauvres	-4745
▁comporte	-4746
▁deuxième	-4747
▁sabadoor	-4748
▁topatoox	-4749
▁étranger	-4750
artiennent	-4751
▁kataakoon	-4752
▁pesoorooƭ	-4753
▁enseignement	-4754
act	-4755
dix	-4756
eeh	-4757
iiƈ	-4758
itt	-4759
éla	-4760
▁Um	-4761
agna	-4762
arde	-4763
aute	-4764
eera	-4765
fait	-4766
mets	-4767
oral	-4768
rira	-4769
▁Ana	-4770
▁Lay	-4771
▁Ram	-4772
▁Zab	-4773
▁daɗ	-4774
▁jeû	-4775
▁kum	-4776
▁vue	-4777
aires	-4778
aquim	-4779
neena	-4780
ochée	-4781
okoox	-4782
rième	-4783
▁Gaad	-4784
▁affa	-4785
▁dons	-4786
▁gren	-4787
▁gung	-4788
▁ment	-4789
▁nquc	-4790
▁seem	-4791
▁send	-4792
▁serp	-4793
▁suff	-4794
▁ƥiiɓ	-4795
anuuma	-4796
relles	-4797
rirent	-4798
uction	-4799
▁Canan	-4800
▁auras	-4801
▁dirig	-4802
▁livré	-4803
▁nafir	-4804
▁njegu	-4805
▁njong	-4806
▁piège	-4807
▁pluie	-4808
quèrent	-4809
▁Hébron	-4810
▁Sakari	-4811
▁animal	-4812
▁appris	-4813
▁laytaa	-4814
▁lequel	-4815
▁rempli	-4816
▁vienne	-4817
▁accompl	-4818
▁arriver	-4819
▁mbaagna	-4820
▁mensong	-4821
▁Mordokay	-4822
▁devaient	-4823
▁fadiidna	-4824
▁répondre	-4825
▁Mardochée	-4826
▁abandonné	-4827
▁quatrième	-4828
▁retourner	-4829
▁israélites	-4830
▁yoonandtin	-4831
▁événements	-4832
▁responsables	-4833
Eh	-4834
aff	-4835
ome	-4836
reb	-4837
ula	-4838
alon	-4839
aura	-4840
bles	-4841
elui	-4842
hina	-4843
▁qal	-4844
année	-4845
oncer	-4846
▁Cela	-4847
▁Heeh	-4848
▁dure	-4849
▁miel	-4850
▁wene	-4851
▁ânes	-4852
afulee	-4853
ooloox	-4854
▁blanc	-4855
▁hupna	-4856
▁laine	-4857
▁lulta	-4858
▁magin	-4859
▁meeke	-4860
▁meill	-4861
▁refum	-4862
▁retaa	-4863
▁salle	-4864
▁yoona	-4865
édiaire	-4866
▁découv	-4867
▁désirs	-4868
▁gardes	-4869
▁mbiɗel	-4870
▁monter	-4871
▁sacrée	-4872
▁seemir	-4873
▁combien	-4874
▁passait	-4875
▁réservé	-4876
obscurité	-4877
▁affaires	-4878
▁apparten	-4879
▁conduire	-4880
▁refangaa	-4881
▁chérubins	-4882
▁nombreuses	-4883
▁bénédiction	-4884
Ad	-4885
oa	-4886
war	-4887
ôte	-4888
chez	-4889
enus	-4890
hors	-4891
imes	-4892
iner	-4893
opir	-4894
ueur	-4895
Édom	-4896
▁Ara	-4897
▁Hii	-4898
▁ami	-4899
▁diƈ	-4900
▁eed	-4901
▁ign	-4902
▁koƭ	-4903
▁nda	-4904
Celui	-4905
aanga	-4906
ilgal	-4907
▁Abin	-4908
▁Chem	-4909
▁Joas	-4910
▁Nowe	-4911
▁gras	-4912
▁juum	-4913
▁maaƥ	-4914
▁pure	-4915
▁reti	-4916
▁sinj	-4917
aanoor	-4918
▁Maaka	-4919
▁Simoŋ	-4920
▁innoc	-4921
▁jegaa	-4922
▁tiens	-4923
▁xeɗaa	-4924
▁yegin	-4925
aration	-4926
oortiid	-4927
▁Balaam	-4928
▁Esteer	-4929
▁Sichem	-4930
▁déshon	-4931
▁gauche	-4932
▁laissé	-4933
▁laykaa	-4934
▁solenn	-4935
▁atteint	-4936
▁effectu	-4937
▁manteau	-4938
▁maxatin	-4939
▁njegkin	-4940
▁prétend	-4941
▁remplis	-4942
▁tekitna	-4943
▁village	-4944
▁Abimélek	-4945
▁province	-4946
▁retourne	-4947
▁récoltes	-4948
▁sauvages	-4949
▁wooritna	-4950
▁autrefois	-4951
▁consulter	-4952
▁maadooxaa	-4953
▁quiconque	-4954
▁comprendre	-4955
▁particulier	-4956
Ce	-4957
Is	-4958
hé	-4959
èn	-4960
ola	-4961
éli	-4962
▁Ac	-4963
▁ay	-4964
▁st	-4965
▁–,	-4966
Oxuu	-4967
atil	-4968
cheb	-4969
diin	-4970
doox	-4971
riez	-4972
taan	-4973
ther	-4974
uvre	-4975
▁Ass	-4976
▁Gom	-4977
▁Job	-4978
▁Seu	-4979
▁Yud	-4980
▁lut	-4981
▁ore	-4982
▁ris	-4983
▁ñim	-4984
oogun	-4985
érode	-4986
▁Ndok	-4987
▁aîné	-4988
▁ngef	-4989
▁pren	-4990
▁raaɓ	-4991
▁suum	-4992
▁tire	-4993
▁xaañ	-4994
▁yaay	-4995
▁ƭaay	-4996
ientôt	-4997
okatax	-4998
▁Judée	-4999
▁bless	-5000
▁dimle	-5001
▁démol	-5002
▁faite	-5003
▁mbeec	-5004
▁ngore	-5005
▁offre	-5006
▁patax	-5007
▁puits	-5008
▁sinon	-5009
▁tagid	-5010
▁étiez	-5011
▁Andaam	-5012
▁Chacun	-5013
▁bonnes	-5014
▁forces	-5015
▁laissa	-5016
▁montre	-5017
▁mourra	-5018
▁refuse	-5019
▁récomp	-5020
▁ñaamna	-5021
issaient	-5022
▁Comment	-5023
▁adressa	-5024
▁batiise	-5025
▁dixième	-5026
▁détruit	-5027
▁envoyer	-5028
▁fadnoox	-5029
▁mbaaƭaa	-5030
▁mbootoox	-5031
▁Cananéens	-5032
▁gataakoon	-5033
▁poussière	-5034
▁situation	-5035
▁mbetandoox	-5036
▁Babyloniens	-5037
aye	-5038
ful	-5039
iré	-5040
tam	-5041
xam	-5042
anch	-5043
ayez	-5044
cinq	-5045
eemb	-5046
isés	-5047
léch	-5048
maak	-5049
▁Mah	-5050
▁Mar	-5051
▁Yaq	-5052
▁lac	-5053
▁nég	-5054
▁riñ	-5055
▁teƥ	-5056
▁tuƈ	-5057
▁ɓaa	-5058
Juifs	-5059
après	-5060
aƭaru	-5061
laand	-5062
prouv	-5063
érent	-5064
▁Yaag	-5065
▁agir	-5066
▁chac	-5067
▁cord	-5068
▁ence	-5069
▁larg	-5070
▁njaw	-5071
▁taab	-5072
▁Ésaü	-5073
anaxam	-5074
empara	-5075
itions	-5076
katiim	-5077
▁Yudee	-5078
▁annon	-5079
▁arbre	-5080
▁brûle	-5081
▁caval	-5082
▁insul	-5083
▁jopir	-5084
▁oliiw	-5085
▁proch	-5086
▁réfug	-5087
▁somme	-5088
axooxna	-5089
eeleemb	-5090
▁Herood	-5091
▁Yoyada	-5092
▁bateer	-5093
▁cigeen	-5094
▁dehors	-5095
▁fleuve	-5096
▁ngimna	-5097
▁néglig	-5098
▁porche	-5099
▁puisqu	-5100
▁secret	-5101
▁sommet	-5102
▁tranqu	-5103
▁ɓoxota	-5104
▁apporte	-5105
▁colline	-5106
▁constat	-5107
▁célébre	-5108
▁faisant	-5109
▁montrer	-5110
▁partage	-5111
▁seconde	-5112
▁Abimelek	-5113
▁annoncer	-5114
▁cadavres	-5115
▁décision	-5116
▁maadooxa	-5117
▁mbadiida	-5118
▁violence	-5119
▁attention	-5120
▁coupables	-5121
▁descendre	-5122
▁malédiction	-5123
▁ndeɓandoong	-5124
▁comportement	-5125
▁propriétaire	-5126
ha	-5127
ys	-5128
▁2	-5129
hin	-5130
isi	-5131
lus	-5132
ooy	-5133
ray	-5134
âte	-5135
écu	-5136
aasa	-5137
alek	-5138
anit	-5139
ards	-5140
leva	-5141
oint	-5142
oori	-5143
ooru	-5144
zare	-5145
çons	-5146
▁Baa	-5147
▁Ceg	-5148
▁doc	-5149
▁faç	-5150
▁paï	-5151
Allez	-5152
Hadad	-5153
aalde	-5154
andes	-5155
ilité	-5156
quera	-5157
rible	-5158
rient	-5159
▁Ahaz	-5160
▁Leng	-5161
▁Même	-5162
▁Rama	-5163
▁ache	-5164
▁alfa	-5165
▁insp	-5166
▁kiiƈ	-5167
▁mbaƴ	-5168
▁romp	-5169
▁yaaw	-5170
▁Ñaal	-5171
Inooxi	-5172
auront	-5173
balaan	-5174
reerna	-5175
▁Edoom	-5176
▁Joram	-5177
▁avais	-5178
▁butin	-5179
▁doxin	-5180
▁mêmes	-5181
▁ndaab	-5182
▁ngeek	-5183
▁oubli	-5184
▁passe	-5185
▁refit	-5186
▁reine	-5187
▁récon	-5188
▁saaku	-5189
▁saate	-5190
▁tenir	-5191
▁tient	-5192
▁veuve	-5193
▁Oxeene	-5194
▁Roboam	-5195
▁Yowaas	-5196
▁consum	-5197
▁daawna	-5198
▁langue	-5199
▁ndalik	-5200
▁nécess	-5201
▁rideau	-5202
▁yaasam	-5203
approcha	-5204
▁Asariya	-5205
▁accorde	-5206
▁approch	-5207
▁destiné	-5208
▁jangnaa	-5209
▁matiida	-5210
▁quitter	-5211
▁saƭakin	-5212
▁tedland	-5213
▁widuuna	-5214
▁ƥoxotaa	-5215
▁andeerna	-5216
▁apporter	-5217
▁branches	-5218
▁jegangaa	-5219
▁nomtooxa	-5220
▁surveill	-5221
▁yegnitaa	-5222
▁Caajangin	-5223
▁manifeste	-5224
▁traverser	-5225
▁fonctionna	-5226
▁mbokatoora	-5227
▁ndambalaan	-5228
▁trouvèrent	-5229
▁commandement	-5230
▁connaissance	-5231
Et	-5232
Ga	-5233
La	-5234
anx	-5235
hra	-5236
iic	-5237
maa	-5238
Mais	-5239
ides	-5240
irna	-5241
mena	-5242
oids	-5243
quia	-5244
▁Kes	-5245
▁Mil	-5246
▁Tar	-5247
▁ang	-5248
▁cèd	-5249
▁mér	-5250
▁qas	-5251
▁tan	-5252
atiim	-5253
ieurs	-5254
illez	-5255
▁Sara	-5256
▁Tels	-5257
▁abat	-5258
▁déta	-5259
▁form	-5260
▁mbud	-5261
▁neuf	-5262
▁parc	-5263
▁prin	-5264
▁refa	-5265
▁taaƥ	-5266
▁ƭuum	-5267
ultère	-5268
▁Haman	-5269
▁andna	-5270
▁garit	-5271
▁garna	-5272
▁juger	-5273
▁nahuk	-5274
▁nqend	-5275
▁plant	-5276
▁plaît	-5277
▁poids	-5278
▁refan	-5279
▁yirim	-5280
▁Madian	-5281
▁advers	-5282
▁allons	-5283
▁andaam	-5284
▁autels	-5285
▁cungaa	-5286
▁demain	-5287
▁donnée	-5288
▁entour	-5289
▁kirand	-5290
▁mbadin	-5291
▁mesure	-5292
▁ndetaa	-5293
▁prenez	-5294
▁seedar	-5295
▁troupe	-5296
▁xalaat	-5297
autorité	-5298
▁Heeheet	-5299
▁Yoyakim	-5300
▁aveugle	-5301
▁choisis	-5302
▁laissez	-5303
▁mbeeñil	-5304
▁nandtaa	-5305
▁ndeefan	-5306
▁pouvait	-5307
▁succéda	-5308
▁écoutez	-5309
▁arrivera	-5310
▁bataille	-5311
▁persécut	-5312
▁question	-5313
▁cérémonie	-5314
▁jasnoorna	-5315
▁recommand	-5316
▁lengandeer	-5317
▁disparaître	-5318
▁profondément	-5319
As	-5320
Un	-5321
Ye	-5322
eƥ	-5323
Eup	-5324
gré	-5325
lic	-5326
uud	-5327
yat	-5328
ére	-5329
▁Ci	-5330
▁ph	-5331
alaa	-5332
aléc	-5333
iini	-5334
léem	-5335
naan	-5336
ŋaay	-5337
▁Gué	-5338
▁abs	-5339
▁hat	-5340
▁poy	-5341
▁soc	-5342
▁suq	-5343
▁sûr	-5344
▁tua	-5345
▁yux	-5346
▁ƈiƴ	-5347
▁ƴiƴ	-5348
alité	-5349
aliya	-5350
aurai	-5351
errez	-5352
hrate	-5353
liers	-5354
rages	-5355
▁Guib	-5356
▁Siis	-5357
▁Yeey	-5358
▁assi	-5359
▁espè	-5360
▁expl	-5361
▁lait	-5362
▁ngel	-5363
▁pâtu	-5364
▁tige	-5365
▁tués	-5366
▁veng	-5367
▁xota	-5368
▁état	-5369
itkeel	-5370
▁Araam	-5371
▁Caleb	-5372
▁capit	-5373
▁faits	-5374
▁grave	-5375
▁infid	-5376
▁laxas	-5377
▁libre	-5378
▁meurt	-5379
▁mirac	-5380
▁piste	-5381
▁rimel	-5382
▁seuls	-5383
▁venue	-5384
▁watin	-5385
▁xoola	-5386
ooguuna	-5387
▁Esprit	-5388
▁disent	-5389
▁garder	-5390
▁impurs	-5391
▁mettez	-5392
▁njamsa	-5393
▁ƴufgin	-5394
Euphrate	-5395
ensemble	-5396
▁bientôt	-5397
▁concern	-5398
▁fagkeer	-5399
▁honneur	-5400
▁mbaagee	-5401
▁nourrir	-5402
▁saŋkoox	-5403
eebensame	-5404
▁Bethléem	-5405
▁collines	-5406
▁détresse	-5407
▁mbanjang	-5408
▁messages	-5409
▁prochain	-5410
▁produits	-5411
▁reçurent	-5412
▁toroxand	-5413
▁différent	-5414
▁jaajangin	-5415
▁plusieurs	-5416
▁reefandel	-5417
▁quittèrent	-5418
On	-5419
ts	-5420
iba	-5421
mit	-5422
ooq	-5423
uuƭ	-5424
▁Fi	-5425
▁Oh	-5426
▁aq	-5427
▁sc	-5428
▁vœ	-5429
ania	-5430
chan	-5431
chée	-5432
ecti	-5433
eema	-5434
heem	-5435
ouel	-5436
unpa	-5437
▁Col	-5438
▁Med	-5439
▁Yef	-5440
▁ess	-5441
▁fak	-5442
▁flé	-5443
▁gal	-5444
▁jui	-5445
▁rav	-5446
▁ros	-5447
▁wen	-5448
▁ŋaa	-5449
▁ƥak	-5450
aniid	-5451
aniya	-5452
atina	-5453
liqua	-5454
ooxyo	-5455
owaab	-5456
rirez	-5457
teurs	-5458
èvera	-5459
▁Feek	-5460
▁Hitt	-5461
▁caaƈ	-5462
▁jaɓa	-5463
▁joot	-5464
▁muut	-5465
▁obéi	-5466
▁peau	-5467
▁rool	-5468
▁sexe	-5469
▁spir	-5470
▁Édom	-5471
▁ñiiñ	-5472
▁ƥaaɓ	-5473
adress	-5474
amalek	-5475
eureux	-5476
interv	-5477
▁Saara	-5478
▁actes	-5479
▁armes	-5480
▁canja	-5481
▁intit	-5482
▁jeter	-5483
▁liste	-5484
▁mangé	-5485
▁pagal	-5486
▁regag	-5487
▁sauve	-5488
▁situé	-5489
▁siège	-5490
▁tekit	-5491
▁xoyna	-5492
▁éclat	-5493
écouter	-5494
▁Toutes	-5495
▁barque	-5496
▁battre	-5497
▁divers	-5498
▁fangax	-5499
▁fudoox	-5500
▁genoux	-5501
▁poussé	-5502
▁rappel	-5503
▁recens	-5504
▁suivre	-5505
▁témoin	-5506
▁vignes	-5507
▁xeɗang	-5508
angeerna	-5509
▁Ndokand	-5510
▁Syriens	-5511
▁ceefeer	-5512
▁chasser	-5513
▁signifi	-5514
▁voulait	-5515
▁warnoor	-5516
▁ŋaaŋaay	-5517
▁fidélité	-5518
▁fonction	-5519
▁présente	-5520
▁quantité	-5521
▁regteena	-5522
▁réaliser	-5523
▁glorieuse	-5524
▁inoortiid	-5525
▁partirent	-5526
▁pratiques	-5527
▁exterminer	-5528
▁purification	-5529
uñ	-5530
ïe	-5531
Ndi	-5532
idi	-5533
uge	-5534
upu	-5535
ôts	-5536
▁At	-5537
▁Xe	-5538
ades	-5539
aite	-5540
alia	-5541
ayim	-5542
erté	-5543
oore	-5544
reur	-5545
rier	-5546
user	-5547
▁Han	-5548
▁Rak	-5549
▁Sel	-5550
▁Yed	-5551
▁ged	-5552
▁lup	-5553
▁rap	-5554
▁sat	-5555
▁sil	-5556
▁tak	-5557
▁ƥox	-5558
aband	-5559
achel	-5560
quels	-5561
▁laal	-5562
▁mbet	-5563
▁ndip	-5564
▁yoor	-5565
iibind	-5566
illent	-5567
interm	-5568
leheem	-5569
▁Actes	-5570
▁Liban	-5571
▁Libaŋ	-5572
▁Simey	-5573
▁Timna	-5574
▁ailes	-5575
▁asper	-5576
▁camsa	-5577
▁chair	-5578
▁dévas	-5579
▁forte	-5580
▁kunpa	-5581
▁ndoka	-5582
▁njaga	-5583
▁perdu	-5584
▁perte	-5585
▁rabid	-5586
▁spéci	-5587
▁tokol	-5588
▁total	-5589
▁waree	-5590
▁xeene	-5591
enterra	-5592
importe	-5593
▁Hesron	-5594
▁Rachel	-5595
▁Siméon	-5596
▁accept	-5597
▁belles	-5598
▁devons	-5599
▁dispar	-5600
▁habits	-5601
▁intent	-5602
▁mettra	-5603
▁ndaawa	-5604
▁pegoor	-5605
▁pécher	-5606
▁répart	-5607
oolaƭaru	-5608
▁Majesté	-5609
▁appelée	-5610
▁capable	-5611
▁coucher	-5612
▁exemple	-5613
▁fexuuma	-5614
▁mariage	-5615
▁ndagoox	-5616
▁produit	-5617
▁réalise	-5618
▁sadaxit	-5619
▁ƥaaɓaan	-5620
▁ɓoxotin	-5621
▁avertiss	-5622
▁yetooxaa	-5623
▁qoolaƭaru	-5624
▁Beebensame	-5625
▁habitaient	-5626
▁nécessaire	-5627
▁tadkandeer	-5628
▁ƥetkandeer	-5629
▁entièrement	-5630
▁refangeerna	-5631
intermédiaire	-5632
ète	-5633
▁Ap	-5634
▁dû	-5635
▁lè	-5636
▁né	-5637
crit	-5638
ensé	-5639
foox	-5640
izré	-5641
util	-5642
ôtre	-5643
▁Ken	-5644
▁Moi	-5645
▁Non	-5646
▁bil	-5647
▁gom	-5648
▁har	-5649
▁mod	-5650
▁qul	-5651
abaon	-5652
assia	-5653
iigim	-5654
ières	-5655
oiles	-5656
quent	-5657
urant	-5658
▁Beer	-5659
▁Booz	-5660
▁Gaat	-5661
▁Tiir	-5662
▁Took	-5663
▁ador	-5664
▁excl	-5665
▁foog	-5666
▁guuɗ	-5667
▁koƭu	-5668
▁mbeg	-5669
▁mben	-5670
▁ngat	-5671
▁ngir	-5672
▁njak	-5673
▁odor	-5674
▁puul	-5675
▁seeq	-5676
▁trem	-5677
▁vant	-5678
▁voit	-5679
Ndetyo	-5680
iments	-5681
izréel	-5682
onnera	-5683
▁Abner	-5684
▁Nabal	-5685
▁caché	-5686
▁fadna	-5687
▁gasel	-5688
▁nanaa	-5689
▁oblig	-5690
▁parab	-5691
▁peste	-5692
▁prête	-5693
Comment	-5694
▁Eliise	-5695
▁Gabaon	-5696
▁akaaga	-5697
▁cafeñu	-5698
▁gadoox	-5699
▁kaltaa	-5700
▁montré	-5701
▁païens	-5702
▁permis	-5703
▁prépar	-5704
▁roxond	-5705
▁taabul	-5706
▁étions	-5707
airement	-5708
▁Jizréel	-5709
▁Joaquim	-5710
▁Malaaka	-5711
▁appelés	-5712
▁deviend	-5713
▁groupes	-5714
▁humaine	-5715
▁njaaxiɗ	-5716
▁prépare	-5717
▁préparé	-5718
▁réalité	-5719
inalement	-5720
▁Quelques	-5721
▁intitulé	-5722
▁malheurs	-5723
▁pourrais	-5724
▁pourront	-5725
▁puissant	-5726
▁refeerna	-5727
▁voisines	-5728
▁Betleheem	-5729
▁prononcer	-5730
▁synagogue	-5731
▁fortifiées	-5732
▁manifester	-5733
▁gouverneurs	-5734
▁retournèrent	-5735
nu	-5736
▁3	-5737
▁[	-5738
ayt	-5739
fin	-5740
oli	-5741
pre	-5742
uré	-5743
▁Du	-5744
Dieu	-5745
aime	-5746
amen	-5747
cala	-5748
efee	-5749
inum	-5750
lait	-5751
père	-5752
çait	-5753
ébus	-5754
épée	-5755
▁Eli	-5756
▁Kal	-5757
▁Uri	-5758
▁bet	-5759
▁jul	-5760
▁mee	-5761
▁sum	-5762
▁sév	-5763
▁tap	-5764
▁âne	-5765
aines	-5766
eenoo	-5767
eures	-5768
istra	-5769
obéir	-5770
oulez	-5771
▁Gath	-5772
▁Gued	-5773
▁Yehu	-5774
▁fixé	-5775
▁jini	-5776
▁péri	-5777
▁roon	-5778
▁soƥa	-5779
▁subs	-5780
▁taaƴ	-5781
▁tels	-5782
▁weec	-5783
▁ɗomu	-5784
Yaasam	-5785
adorer	-5786
iroong	-5787
▁Sadoc	-5788
▁Yisre	-5789
▁affir	-5790
▁digne	-5791
▁début	-5792
▁hatna	-5793
▁haute	-5794
▁moofa	-5795
▁ndool	-5796
▁nuage	-5797
▁remit	-5798
▁saang	-5799
▁Ésaïe	-5800
aytaane	-5801
ctement	-5802
▁Amaléc	-5803
▁Esther	-5804
▁bandes	-5805
▁croire	-5806
▁feront	-5807
▁liitar	-5808
▁mbaare	-5809
▁orient	-5810
▁refuge	-5811
▁reçoit	-5812
▁rocher	-5813
▁socles	-5814
▁songik	-5815
▁Abineer	-5816
▁Jacques	-5817
▁Simewon	-5818
▁arrivée	-5819
▁caloori	-5820
▁conseil	-5821
▁habiter	-5822
▁kurcala	-5823
▁langues	-5824
▁mbetand	-5825
▁méchant	-5826
▁onqaaga	-5827
▁pensées	-5828
▁portait	-5829
▁prescri	-5830
▁saƭkand	-5831
▁yoqatin	-5832
▁Colandax	-5833
▁Maamajan	-5834
▁continua	-5835
▁enceinte	-5836
▁layoogna	-5837
▁longueur	-5838
▁oreilles	-5839
▁patience	-5840
▁royaumes	-5841
▁taureaux	-5842
▁baabakaad	-5843
▁cavaliers	-5844
▁installés	-5845
▁convaincus	-5846
▁poursuivre	-5847
▁mbaqaqoorna	-5848
▁prisonniers	-5849
▁reconnaître	-5850
▁xontooxnoor	-5851
ade	-5852
eew	-5853
elo	-5854
hum	-5855
koƥ	-5856
tup	-5857
uer	-5858
éré	-5859
▁Él	-5860
▁âg	-5861
ager	-5862
ahas	-5863
enfu	-5864
ofel	-5865
▁Méd	-5866
▁Nan	-5867
▁Tyr	-5868
▁ard	-5869
▁fur	-5870
▁gid	-5871
▁jem	-5872
▁pec	-5873
▁xij	-5874
▁yaƥ	-5875
▁équ	-5876
araît	-5877
aucun	-5878
oyada	-5879
rebis	-5880
reena	-5881
rères	-5882
toona	-5883
▁Ahit	-5884
▁Haam	-5885
▁Yéch	-5886
▁agré	-5887
▁buuq	-5888
▁cria	-5889
▁feek	-5890
▁fimb	-5891
▁geel	-5892
▁grav	-5893
▁honn	-5894
▁lanc	-5895
▁lion	-5896
▁murs	-5897
▁njom	-5898
▁plan	-5899
▁prix	-5900
▁stup	-5901
▁yena	-5902
Ndiiki	-5903
angaam	-5904
ention	-5905
inaire	-5906
▁Amnon	-5907
▁Jébus	-5908
▁céléb	-5909
▁fuite	-5910
▁incap	-5911
▁juifs	-5912
▁menac	-5913
▁monta	-5914
▁njoor	-5915
▁outre	-5916
▁sawar	-5917
▁supit	-5918
▁sutel	-5919
▁ƥisin	-5920
Écoutez	-5921
▁Guibéa	-5922
▁amener	-5923
▁chèvre	-5924
▁doonin	-5925
▁droits	-5926
▁gagner	-5927
▁jiriiñ	-5928
▁mbalak	-5929
▁mbarit	-5930
▁njogoy	-5931
▁pleins	-5932
▁quator	-5933
▁ramené	-5934
▁simple	-5935
▁statue	-5936
▁traite	-5937
▁trésor	-5938
▁wodand	-5939
paravant	-5940
▁Haamaan	-5941
▁Xiixire	-5942
▁devenir	-5943
▁layuuma	-5944
▁maamaaɓ	-5945
▁ndabdin	-5946
▁ngenand	-5947
▁passage	-5948
▁piibind	-5949
▁support	-5950
▁témoins	-5951
▁Yehoyada	-5952
▁assassin	-5953
▁convoqua	-5954
▁couronne	-5955
▁derniers	-5956
▁laytuuna	-5957
▁particip	-5958
▁poissons	-5959
▁présenta	-5960
▁richesse	-5961
▁suivante	-5962
▁terrible	-5963
▁laisserai	-5964
▁ngenoogna	-5965
▁propriété	-5966
▁génération	-5967
approchèrent	-5968
▁territoires	-5969
▁transmettre	-5970
▁conséquences	-5971
Ha	-5972
In	-5973
▁1	-5974
bes	-5975
guñ	-5976
ime	-5977
inf	-5978
kam	-5979
owa	-5980
rou	-5981
tir	-5982
▁Fo	-5983
▁Ox	-5984
▁op	-5985
ebus	-5986
irax	-5987
okaa	-5988
pond	-5989
siez	-5990
ŋaan	-5991
▁Hor	-5992
▁Nam	-5993
▁Ner	-5994
▁Tob	-5995
▁ext	-5996
▁gañ	-5997
▁jar	-5998
▁kef	-5999
▁mus	-6000
▁naf	-6001
▁oui	-6002
▁rét	-6003
▁séc	-6004
▁xuc	-6005
▁ɗap	-6006
andit	-6007
estib	-6008
ident	-6009
igand	-6010
▁Abel	-6011
▁Cham	-6012
▁Hass	-6013
▁Moom	-6014
▁Saak	-6015
▁exac	-6016
▁gend	-6017
▁jeté	-6018
▁maaɓ	-6019
▁ndol	-6020
▁njek	-6021
▁njer	-6022
▁njuk	-6023
▁piis	-6024
▁sout	-6025
▁taax	-6026
▁xoya	-6027
▁ƭaan	-6028
amment	-6029
atsiya	-6030
ection	-6031
envoie	-6032
ieuses	-6033
iiyiiy	-6034
koogee	-6035
oogaan	-6036
▁Basan	-6037
▁Phili	-6038
▁Satan	-6039
▁compt	-6040
▁cèdre	-6041
▁duguñ	-6042
▁felna	-6043
▁juges	-6044
▁lèpre	-6045
▁mboog	-6046
▁prote	-6047
▁réuss	-6048
▁salax	-6049
▁sogna	-6050
▁vécut	-6051
adresse	-6052
respond	-6053
▁Hérode	-6054
▁Naaman	-6055
▁Semaya	-6056
▁aurait	-6057
▁bateau	-6058
▁berger	-6059
▁cooxit	-6060
▁diffic	-6061
▁donnés	-6062
▁fesoor	-6063
▁grains	-6064
▁njakad	-6065
▁profit	-6066
▁quitté	-6067
▁rendez	-6068
▁saŋkax	-6069
▁traité	-6070
▁waaƭaa	-6071
▁éprouv	-6072
entendis	-6073
▁Yéchoua	-6074
▁appeler	-6075
▁appelle	-6076
▁chacune	-6077
▁compris	-6078
▁largeur	-6079
▁plaisir	-6080
▁réfléch	-6081
▁serpent	-6082
▁terreur	-6083
▁étoiles	-6084
▁Amatsiya	-6085
▁Saytaane	-6086
▁Yeeyebus	-6087
▁miracles	-6088
▁possible	-6089
▁sécurité	-6090
▁tenaient	-6091
▁Moomowaab	-6092
▁Toutefois	-6093
▁apprirent	-6094
▁faisaient	-6095
▁relations	-6096
▁réconfort	-6097
▁supérieur	-6098
▁correspond	-6099
▁dadkandeer	-6100
▁travailler	-6101
▁bienveillance	-6102
Ng	-6103
aƈ	-6104
ea	-6105
ki	-6106
mri	-6107
oût	-6108
sis	-6109
uns	-6110
▁Se	-6111
abri	-6112
akal	-6113
doni	-6114
erve	-6115
essé	-6116
mées	-6117
naam	-6118
reer	-6119
érir	-6120
▁Esd	-6121
▁Keb	-6122
▁Kel	-6123
▁Lot	-6124
▁Mel	-6125
▁Muu	-6126
▁Tir	-6127
▁dap	-6128
▁joy	-6129
▁luf	-6130
▁meɗ	-6131
▁sof	-6132
aadok	-6133
anjar	-6134
epuis	-6135
meena	-6136
rande	-6137
uppos	-6138
▁Abiy	-6139
▁Ahim	-6140
▁Avec	-6141
▁bons	-6142
▁crit	-6143
▁daab	-6144
▁feed	-6145
▁irré	-6146
▁mène	-6147
▁ndiƈ	-6148
▁pria	-6149
▁préd	-6150
▁qont	-6151
▁reng	-6152
▁supt	-6153
▁suun	-6154
▁tira	-6155
▁toog	-6156
▁vite	-6157
▁vécu	-6158
▁yook	-6159
▁écri	-6160
ingeer	-6161
iraamo	-6162
offrir	-6163
▁Chimé	-6164
▁Damas	-6165
▁Nadab	-6166
▁Yehow	-6167
▁connu	-6168
▁const	-6169
▁diras	-6170
▁enfin	-6171
▁faaxa	-6172
▁genar	-6173
▁gimna	-6174
▁jilna	-6175
▁mexey	-6176
▁niwel	-6177
▁tomba	-6178
▁vaill	-6179
▁vérit	-6180
▁ñirax	-6181
angaang	-6182
gilooxi	-6183
▁Damaas	-6184
▁Guerch	-6185
▁Karmel	-6186
▁Maître	-6187
▁Saadok	-6188
▁Sodome	-6189
▁confia	-6190
▁courag	-6191
▁ennemi	-6192
▁fokata	-6193
▁layaan	-6194
▁mbaree	-6195
▁moofna	-6196
▁refusa	-6197
▁termin	-6198
▁verrez	-6199
▁vestib	-6200
▁établi	-6201
▁garitna	-6202
▁mbadiid	-6203
▁meurtre	-6204
▁parties	-6205
▁pouvons	-6206
▁raconta	-6207
▁rendrai	-6208
▁revient	-6209
▁salaire	-6210
▁servira	-6211
▁colandax	-6212
▁confecti	-6213
▁keeleemb	-6214
▁njasnoor	-6215
▁odorante	-6216
▁présents	-6217
▁réservée	-6218
▁sutooxna	-6219
▁tourment	-6220
▁venaient	-6221
▁ƥoxotoox	-6222
▁commettre	-6223
▁construit	-6224
▁descendit	-6225
▁fabriquer	-6226
▁fogreerna	-6227
▁murailles	-6228
▁pâturages	-6229
▁rassembla	-6230
▁respecter	-6231
▁servantes	-6232
▁suivantes	-6233
▁tellement	-6234
▁vestibule	-6235
▁Amalécites	-6236
▁mbelakinoox	-6237
▁nomtooxiida	-6238
▁mberaandoong	-6239
▁rassemblèrent	-6240
▁fonctionnaires	-6241
laa	-6242
saf	-6243
alti	-6244
avan	-6245
chaï	-6246
deux	-6247
enue	-6248
erts	-6249
igot	-6250
lair	-6251
oxos	-6252
trém	-6253
ving	-6254
èche	-6255
▁Dag	-6256
▁Pee	-6257
▁ban	-6258
▁dod	-6259
▁guu	-6260
▁hiɓ	-6261
▁juu	-6262
▁mir	-6263
▁mét	-6264
▁qic	-6265
▁ƭap	-6266
▁ɗax	-6267
accep	-6268
assit	-6269
heure	-6270
ilimb	-6271
intes	-6272
proch	-6273
▁Salm	-6274
▁Sina	-6275
▁alli	-6276
▁clou	-6277
▁cuuƭ	-6278
▁nduq	-6279
▁refo	-6280
▁sing	-6281
▁tabl	-6282
▁tend	-6283
▁tonn	-6284
▁yuur	-6285
▁ƥaal	-6286
▁ƥuuɓ	-6287
anceté	-6288
iennes	-6289
kirang	-6290
leront	-6291
ooxkaa	-6292
Écoute	-6293
▁Asera	-6294
▁Balam	-6295
▁Enfin	-6296
▁Kehat	-6297
▁Rakel	-6298
▁Sidon	-6299
▁chari	-6300
▁consc	-6301
▁enter	-6302
▁ndoog	-6303
▁nommé	-6304
▁paɗax	-6305
▁pense	-6306
▁placé	-6307
▁récip	-6308
▁rétab	-6309
▁suivi	-6310
▁tâche	-6311
▁ɓetuk	-6312
▁Azaria	-6313
▁Bachan	-6314
▁Sinayi	-6315
▁Sodoom	-6316
▁angles	-6317
▁cadeau	-6318
▁lampes	-6319
▁maadaa	-6320
▁maƭoox	-6321
▁mbatin	-6322
▁naanax	-6323
▁qontax	-6324
▁taille	-6325
▁utilis	-6326
▁ventre	-6327
axamoona	-6328
▁Chemaya	-6329
▁ancêtre	-6330
▁apparut	-6331
▁biltoox	-6332
▁complot	-6333
▁kaynaak	-6334
▁kelwaar	-6335
▁mbadnaa	-6336
▁parcour	-6337
▁prendra	-6338
▁prières	-6339
▁reconnu	-6340
▁royauté	-6341
▁récolte	-6342
▁tromper	-6343
▁tuèrent	-6344
▁Ɓaanoor	-6345
enfuirent	-6346
▁distance	-6347
▁préparer	-6348
▁raconter	-6349
accompagna	-6350
▁cinquième	-6351
▁partisans	-6352
▁viendront	-6353
▁appartiennent	-6354
Ag	-6355
Na	-6356
Où	-6357
cs	-6358
ro	-6359
000	-6360
aza	-6361
aïm	-6362
cel	-6363
erx	-6364
kis	-6365
nom	-6366
uup	-6367
▁Us	-6368
▁ja	-6369
▁mê	-6370
akar	-6371
elez	-6372
erte	-6373
faan	-6374
iges	-6375
ises	-6376
ucun	-6377
érêt	-6378
ézer	-6379
▁000	-6380
▁coy	-6381
▁emb	-6382
▁iin	-6383
▁jok	-6384
▁num	-6385
▁pot	-6386
▁ran	-6387
▁riw	-6388
▁riƈ	-6389
▁sis	-6390
▁tue	-6391
▁ƭas	-6392
▁ƭof	-6393
▁Cegu	-6394
▁Cité	-6395
▁Elis	-6396
▁Geer	-6397
▁Isay	-6398
▁Nord	-6399
▁Saal	-6400
▁acqu	-6401
▁acti	-6402
▁baaw	-6403
▁dorm	-6404
▁flam	-6405
▁hela	-6406
▁ngum	-6407
▁njaq	-6408
▁pill	-6409
▁pote	-6410
▁sauf	-6411
▁suuf	-6412
▁teel	-6413
▁tiim	-6414
▁wiil	-6415
▁ɗaaɗ	-6416
oullam	-6417
umbaay	-6418
▁Judas	-6419
▁Kaleb	-6420
▁Mbaal	-6421
▁Quiri	-6422
▁Sinaï	-6423
▁bruit	-6424
▁culti	-6425
▁ferez	-6426
▁gaare	-6427
▁laaga	-6428
▁nahak	-6429
▁obéit	-6430
▁poser	-6431
▁prouv	-6432
▁soign	-6433
▁trist	-6434
▁troub	-6435
▁xonna	-6436
▁ñoowa	-6437
animaux	-6438
idement	-6439
ivement	-6440
ooknoox	-6441
ritures	-6442
épreuve	-6443
▁Chiméi	-6444
▁Kiryat	-6445
▁brebis	-6446
▁cacher	-6447
▁cooxaa	-6448
▁dessus	-6449
▁effray	-6450
▁faible	-6451
▁inooru	-6452
▁malgré	-6453
▁mbarin	-6454
▁reefaa	-6455
▁rendus	-6456
▁saloox	-6457
▁sendaa	-6458
▁termes	-6459
▁voyant	-6460
▁waasan	-6461
▁yoqkaa	-6462
▁écouté	-6463
▁ñoowir	-6464
▁ɓogdin	-6465
gilooxaa	-6466
▁Ahasiya	-6467
▁Sabulon	-6468
▁devient	-6469
▁faibles	-6470
▁feluuna	-6471
▁frapper	-6472
▁gelwaar	-6473
▁jeefeer	-6474
▁lultiid	-6475
▁passera	-6476
▁pogreer	-6477
▁pourras	-6478
▁remplit	-6479
▁répondu	-6480
▁simataa	-6481
▁ñimatir	-6482
accompagn	-6483
intention	-6484
▁allaient	-6485
▁bindeena	-6486
▁concerne	-6487
▁document	-6488
▁déportés	-6489
▁innocent	-6490
▁messager	-6491
▁occasion	-6492
▁travaill	-6493
▁fermement	-6494
▁nouvelles	-6495
▁rondandin	-6496
▁sortirent	-6497
▁transport	-6498
▁commandant	-6499
▁mbelakinax	-6500
▁prostituée	-6501
▁certainement	-6502
▁intelligence	-6503
aca	-6504
uth	-6505
▁!”	-6506
▁Eb	-6507
aaru	-6508
angt	-6509
aqil	-6510
baas	-6511
eyon	-6512
ider	-6513
iidi	-6514
itre	-6515
lend	-6516
oreb	-6517
otam	-6518
rité	-6519
çant	-6520
écip	-6521
éder	-6522
▁Cet	-6523
▁Isa	-6524
▁Sou	-6525
▁boi	-6526
▁gis	-6527
▁haa	-6528
▁haï	-6529
▁sen	-6530
▁tri	-6531
Viens	-6532
angyo	-6533
anxoy	-6534
arras	-6535
ereur	-6536
erxès	-6537
oches	-6538
oogee	-6539
oppos	-6540
oɓong	-6541
ressi	-6542
tiida	-6543
▁Cert	-6544
▁Loth	-6545
▁Plus	-6546
▁Ruth	-6547
▁allé	-6548
▁cram	-6549
▁daln	-6550
▁dang	-6551
▁gore	-6552
▁jaan	-6553
▁jard	-6554
▁jimb	-6555
▁joor	-6556
▁ndug	-6557
▁noms	-6558
▁plat	-6559
▁xeef	-6560
▁yega	-6561
▁épis	-6562
issons	-6563
ouleur	-6564
érable	-6565
▁Abiya	-6566
▁Jessé	-6567
▁Parmi	-6568
▁Uriya	-6569
▁Yotam	-6570
▁aimer	-6571
▁aperç	-6572
▁croit	-6573
▁fatig	-6574
▁haine	-6575
▁helko	-6576
▁ignor	-6577
▁jegit	-6578
▁kamba	-6579
▁large	-6580
▁layan	-6581
▁mayna	-6582
▁moiss	-6583
▁ndefa	-6584
▁ngaañ	-6585
▁njimb	-6586
▁obéir	-6587
▁racon	-6588
▁surpr	-6589
▁yenaa	-6590
▁ƭomat	-6591
appelle	-6592
cations	-6593
eeruuma	-6594
rétaire	-6595
èrement	-6596
▁Durant	-6597
▁Pilaat	-6598
▁Seraya	-6599
▁Tandis	-6600
▁arrach	-6601
▁attach	-6602
▁axeeke	-6603
▁diable	-6604
▁déclar	-6605
▁feeñil	-6606
▁garçon	-6607
▁geleer	-6608
▁heboox	-6609
▁incend	-6610
▁jaajal	-6611
▁jegkaa	-6612
▁jegkee	-6613
▁observ	-6614
▁petite	-6615
▁précip	-6616
▁révélé	-6617
▁telles	-6618
▁tonnes	-6619
▁voulez	-6620
▁xewkaa	-6621
interrog	-6622
ootooxyo	-6623
▁Gedeyon	-6624
▁Isakaar	-6625
▁Zabulon	-6626
▁acheter	-6627
▁anneaux	-6628
▁arrivés	-6629
▁chambre	-6630
▁cheveux	-6631
▁compren	-6632
▁conclue	-6633
▁croient	-6634
▁devront	-6635
▁haahate	-6636
▁jaaniif	-6637
▁kaahate	-6638
▁malades	-6639
▁partici	-6640
▁possède	-6641
▁proches	-6642
▁regarda	-6643
▁régions	-6644
▁saytoox	-6645
▁silence	-6646
▁spiritu	-6647
▁sutoora	-6648
▁traiter	-6649
▁wareena	-6650
▁Barnabas	-6651
▁aveugles	-6652
▁position	-6653
▁préoccup	-6654
▁transfor	-6655
▁vivaient	-6656
▁échapper	-6657
▁Barnabaas	-6658
▁attribuée	-6659
▁autorités	-6660
▁circoncis	-6661
▁consacrée	-6662
▁jofoorand	-6663
▁portaient	-6664
▁exactement	-6665
▁fondations	-6666
▁méchanceté	-6667
▁secrétaire	-6668
▁semblables	-6669
▁survivants	-6670
▁topatooxaa	-6671
▁construisit	-6672
aud	-6673
ech	-6674
obe	-6675
ope	-6676
ura	-6677
uuƥ	-6678
▁Ré	-6679
afan	-6680
ahat	-6681
aree	-6682
haut	-6683
lées	-6684
neau	-6685
ooge	-6686
oɗax	-6687
▁Eel	-6688
▁Mag	-6689
▁Nga	-6690
▁War	-6691
▁Xaƴ	-6692
▁aig	-6693
▁fac	-6694
▁fos	-6695
▁keɗ	-6696
▁koo	-6697
▁koŋ	-6698
▁muj	-6699
▁pel	-6700
▁qon	-6701
▁qos	-6702
▁rom	-6703
▁sor	-6704
▁suf	-6705
▁sus	-6706
▁tay	-6707
Achab	-6708
ctime	-6709
herbe	-6710
éhath	-6711
▁Maad	-6712
▁baas	-6713
▁boit	-6714
▁cein	-6715
▁daaƭ	-6716
▁guer	-6717
▁mbir	-6718
▁mbok	-6719
▁meeɓ	-6720
▁ndod	-6721
▁quin	-6722
▁rabd	-6723
▁rejo	-6724
▁soob	-6725
▁tedl	-6726
▁wiis	-6727
empire	-6728
erreur	-6729
isions	-6730
iviers	-6731
ssakar	-6732
unique	-6733
▁Balac	-6734
▁Libna	-6735
▁Usiya	-6736
▁Weeke	-6737
▁allés	-6738
▁andaa	-6739
▁citer	-6740
▁citoy	-6741
▁feras	-6742
▁forts	-6743
▁halak	-6744
▁jalaa	-6745
▁jegun	-6746
▁jolna	-6747
▁métal	-6748
▁nqeef	-6749
▁sutit	-6750
▁tolof	-6751
▁yuxum	-6752
▁équip	-6753
aujourd	-6754
ordonne	-6755
▁couche	-6756
▁croyez	-6757
▁déposa	-6758
▁fuuxan	-6759
▁giigim	-6760
▁jagand	-6761
▁kadoor	-6762
▁lament	-6763
▁manque	-6764
▁mbaamb	-6765
▁mérite	-6766
▁naanga	-6767
▁ndalin	-6768
▁nduguñ	-6769
▁plaine	-6770
▁projet	-6771
▁protég	-6772
▁reconn	-6773
▁redout	-6774
▁taxkaa	-6775
▁touche	-6776
▁veuves	-6777
▁xonkaa	-6778
akalaaru	-6779
empereur	-6780
gilooxee	-6781
occasion	-6782
terelles	-6783
▁Amassia	-6784
▁Quéhath	-6785
▁Yehoram	-6786
▁béliers	-6787
▁cadeaux	-6788
▁kefatin	-6789
▁marcher	-6790
▁ordonne	-6791
▁petites	-6792
▁refuuma	-6793
▁rivière	-6794
▁victime	-6795
▁yooniid	-6796
▁écouter	-6797
▁Philippe	-6798
▁accompli	-6799
▁ceinture	-6800
▁convient	-6801
▁mbumbaay	-6802
▁portiers	-6803
▁répliqua	-6804
▁résister	-6805
▁souffrir	-6806
▁transmis	-6807
▁Édomites	-6808
▁Quiconque	-6809
▁mbaxooxna	-6810
▁nombreuse	-6811
▁tablettes	-6812
▁véritable	-6813
▁Écritures	-6814
▁concernant	-6815
▁conscience	-6816
▁conséquent	-6817
▁communiquer	-6818
▁solennellement	-6819
El	-6820
do	-6821
iŋ	-6822
yu	-6823
▁6	-6824
Nam	-6825
Oxe	-6826
lef	-6827
tie	-6828
uux	-6829
âne	-6830
ége	-6831
▁sé	-6832
Quel	-6833
ache	-6834
agir	-6835
axas	-6836
delà	-6837
ible	-6838
imle	-6839
qués	-6840
tong	-6841
éfod	-6842
érès	-6843
▁Bug	-6844
▁Fil	-6845
▁Gog	-6846
▁Ked	-6847
▁Ouz	-6848
▁Rah	-6849
▁Sob	-6850
▁Toi	-6851
▁Waa	-6852
▁Yet	-6853
▁buv	-6854
▁day	-6855
▁dos	-6856
▁ira	-6857
▁kak	-6858
▁kaƥ	-6859
▁ken	-6860
▁njo	-6861
▁ric	-6862
▁tiƈ	-6863
▁tôt	-6864
▁wey	-6865
▁ɓox	-6866
Seeba	-6867
adama	-6868
arriv	-6869
aurez	-6870
axamo	-6871
onnez	-6872
oogel	-6873
owaas	-6874
oyons	-6875
▁Amon	-6876
▁Make	-6877
▁Saba	-6878
▁Xaye	-6879
▁caga	-6880
▁chaî	-6881
▁créé	-6882
▁gaañ	-6883
▁joug	-6884
▁laar	-6885
▁ndeg	-6886
▁nqel	-6887
▁nqij	-6888
▁posa	-6889
▁souh	-6890
▁ɓisa	-6891
Agneau	-6892
Prends	-6893
aperna	-6894
emment	-6895
encens	-6896
▁Aseer	-6897
▁Kebil	-6898
▁Mieux	-6899
▁cessé	-6900
▁chers	-6901
▁corbe	-6902
▁expéd	-6903
▁figui	-6904
▁jagin	-6905
▁jette	-6906
▁mbaru	-6907
▁ndiiƭ	-6908
▁ngela	-6909
▁nqota	-6910
▁objet	-6911
▁oppos	-6912
▁press	-6913
▁prosp	-6914
▁relev	-6915
▁reçus	-6916
▁subir	-6917
▁tektu	-6918
▁warin	-6919
▁yoora	-6920
▁élevé	-6921
▁éparg	-6922
Majesté	-6923
alaataa	-6924
alement	-6925
oɗaxnir	-6926
quelles	-6927
érieurs	-6928
▁Prenez	-6929
▁Tarsis	-6930
▁couché	-6931
▁détest	-6932
▁lévite	-6933
▁ndefik	-6934
▁perdre	-6935
▁retire	-6936
▁simnaa	-6937
▁tentes	-6938
▁tourna	-6939
ailleurs	-6940
annoncer	-6941
iquement	-6942
offrande	-6943
onnement	-6944
upposons	-6945
▁Yaqanee	-6946
▁Yoyakin	-6947
▁cramois	-6948
▁défaite	-6949
▁délivre	-6950
▁grasses	-6951
▁insulte	-6952
▁journée	-6953
▁layoogu	-6954
▁maladie	-6955
▁nqilimb	-6956
▁pleurer	-6957
▁qaariit	-6958
▁raconte	-6959
▁ramener	-6960
▁souffle	-6961
▁supprim	-6962
▁waaŋaan	-6963
▁xaariit	-6964
▁ɓoxotaa	-6965
▁Moabites	-6966
▁attendre	-6967
▁chameaux	-6968
▁comlaand	-6969
▁conseils	-6970
▁grandeur	-6971
▁localité	-6972
▁mettront	-6973
▁prodiges	-6974
▁précieux	-6975
▁pécheurs	-6976
▁sutooraa	-6977
▁tonnerre	-6978
▁Jébusites	-6979
▁compagnie	-6980
▁courageux	-6981
▁deviendra	-6982
▁entourage	-6983
▁mbuuxnoor	-6984
▁njegeerna	-6985
▁revinrent	-6986
▁Madianites	-6987
▁auparavant	-6988
▁intérieure	-6989
▁récompense	-6990
▁adversaires	-6991
..	-6992
And	-6993
anu	-6994
cer	-6995
cia	-6996
loy	-6997
uuñ	-6998
uwa	-6999
éme	-7000
▁Nq	-7001
▁rô	-7002
aano	-7003
atar	-7004
door	-7005
eeñe	-7006
lamp	-7007
lons	-7008
oɗom	-7009
vité	-7010
élev	-7011
étre	-7012
▁Arp	-7013
▁Bil	-7014
▁Léa	-7015
▁Mac	-7016
▁Reb	-7017
▁Rew	-7018
▁Zéb	-7019
▁eau	-7020
▁log	-7021
▁nar	-7022
▁not	-7023
▁ped	-7024
▁pep	-7025
▁pic	-7026
▁vég	-7027
▁vœu	-7028
▁wad	-7029
asser	-7030
ellig	-7031
elopp	-7032
ertes	-7033
eƥand	-7034
oisse	-7035
ption	-7036
ranée	-7037
uirai	-7038
écart	-7039
▁Abig	-7040
▁Asaf	-7041
▁Fais	-7042
▁Suus	-7043
▁Zéra	-7044
▁daba	-7045
▁doig	-7046
▁fard	-7047
▁mboo	-7048
▁ngod	-7049
▁prév	-7050
▁qali	-7051
▁sach	-7052
▁sooƴ	-7053
▁trah	-7054
▁yooɓ	-7055
▁épau	-7056
▁ɓaal	-7057
appela	-7058
avenir	-7059
entrer	-7060
ignait	-7061
ivites	-7062
lampes	-7063
titude	-7064
▁Avant	-7065
▁Esayi	-7066
▁Hebre	-7067
▁Horeb	-7068
▁afnir	-7069
▁brill	-7070
▁conqu	-7071
▁crier	-7072
▁exist	-7073
▁hauts	-7074
▁kenar	-7075
▁letin	-7076
▁mbogu	-7077
▁naxax	-7078
▁nqeex	-7079
▁remis	-7080
▁renom	-7081
▁rokaa	-7082
▁réput	-7083
▁satis	-7084
▁siens	-7085
▁vainc	-7086
▁yaxig	-7087
aambuur	-7088
abilité	-7089
ateerna	-7090
eaucoup	-7091
endront	-7092
inclina	-7093
ooxoogu	-7094
▁Aadama	-7095
▁Depuis	-7096
▁Peeper	-7097
▁Yotaam	-7098
▁barres	-7099
▁change	-7100
▁chevre	-7101
▁commen	-7102
▁guutat	-7103
▁impure	-7104
▁jangin	-7105
▁kayand	-7106
▁magnel	-7107
▁njanga	-7108
▁pokoox	-7109
▁qanjar	-7110
▁refusé	-7111
▁saisit	-7112
▁suffit	-7113
▁tribun	-7114
▁vivres	-7115
intellig	-7116
onnèrent	-7117
▁Guilgal	-7118
▁Hilkiya	-7119
▁Hilquia	-7120
▁Méditer	-7121
▁appréci	-7122
▁buguuma	-7123
▁cooxaan	-7124
▁désobéi	-7125
▁faambir	-7126
▁gaynaak	-7127
▁inscrit	-7128
▁kumnoor	-7129
▁mettrai	-7130
▁ndokoox	-7131
▁neewand	-7132
▁ngadoox	-7133
▁recevra	-7134
▁simatel	-7135
▁sources	-7136
▁yaqanee	-7137
installer	-7138
▁Hittites	-7139
▁agréable	-7140
▁célébrer	-7141
▁délivrer	-7142
▁effectue	-7143
▁jagandan	-7144
▁poɗaxnir	-7145
▁victimes	-7146
▁consacrés	-7147
▁espérance	-7148
▁important	-7149
▁installer	-7150
▁maadooxan	-7151
▁manifesté	-7152
▁reproches	-7153
▁trouverez	-7154
▁précieuses	-7155
▁rassemblés	-7156
▁tranquille	-7157
▁étrangères	-7158
▁Benjaminites	-7159
▁Méditerranée	-7160
▁commencement	-7161
).	-7162
eɗ	-7163
iƭ	-7164
Nan	-7165
Yaa	-7166
bel	-7167
dod	-7168
eka	-7169
fañ	-7170
▁os	-7171
alit	-7172
gage	-7173
hiwi	-7174
huit	-7175
imin	-7176
iras	-7177
offe	-7178
oitr	-7179
▁Cad	-7180
▁Caï	-7181
▁Dal	-7182
▁Dar	-7183
▁Dis	-7184
▁Kay	-7185
▁Mam	-7186
▁Mos	-7187
▁Rem	-7188
▁caw	-7189
▁cos	-7190
▁dég	-7191
▁fen	-7192
▁mol	-7193
▁pod	-7194
▁œil	-7195
▁ɓol	-7196
Horon	-7197
Quant	-7198
ankee	-7199
ardez	-7200
edoom	-7201
errer	-7202
ouill	-7203
racul	-7204
rions	-7205
trait	-7206
ulook	-7207
ution	-7208
èches	-7209
▁Amen	-7210
▁Bien	-7211
▁Coré	-7212
▁Xeƈa	-7213
▁caus	-7214
▁ceeq	-7215
▁cous	-7216
▁cuve	-7217
▁hupu	-7218
▁nqol	-7219
▁rues	-7220
▁tamb	-7221
▁tenu	-7222
▁tint	-7223
▁tiss	-7224
▁unis	-7225
▁vain	-7226
▁xaƴa	-7227
▁ñofa	-7228
▁ƭaap	-7229
acacia	-7230
endrez	-7231
nooxaa	-7232
ptions	-7233
urance	-7234
îtront	-7235
▁Elkan	-7236
▁Filip	-7237
▁Kelfa	-7238
▁Leurs	-7239
▁Mikal	-7240
▁Persi	-7241
▁Tamar	-7242
▁Tirsa	-7243
▁aient	-7244
▁celem	-7245
▁cessa	-7246
▁chrét	-7247
▁crois	-7248
▁dimen	-7249
▁duqna	-7250
▁eetna	-7251
▁exerc	-7252
▁forêt	-7253
▁gayaa	-7254
▁jaill	-7255
▁loint	-7256
▁maada	-7257
▁meɗel	-7258
▁multi	-7259
▁njaɓa	-7260
▁nomit	-7261
▁obser	-7262
▁poitr	-7263
▁pères	-7264
▁quluɓ	-7265
▁règle	-7266
▁sauvé	-7267
▁voyez	-7268
Absalom	-7269
ancêtre	-7270
angteer	-7271
arrêter	-7272
eeruuna	-7273
emparer	-7274
oralité	-7275
▁Melkis	-7276
▁Tamaar	-7277
▁attrib	-7278
▁cheval	-7279
▁cordes	-7280
▁cornes	-7281
▁dressa	-7282
▁emmena	-7283
▁envoie	-7284
▁franch	-7285
▁guéris	-7286
▁généra	-7287
▁insist	-7288
▁jardin	-7289
▁koɓong	-7290
▁mbarke	-7291
▁membre	-7292
▁montra	-7293
▁ndefaa	-7294
▁paille	-7295
▁plante	-7296
▁preuve	-7297
▁prince	-7298
▁prophé	-7299
▁ruines	-7300
▁réussi	-7301
▁secour	-7302
▁tokand	-7303
▁vivait	-7304
▁ñaamin	-7305
▁ɗeetaa	-7306
adultère	-7307
iiyiiyna	-7308
ièrement	-7309
raculeux	-7310
▁Ahimaas	-7311
▁Hiihiwi	-7312
▁Yonatan	-7313
▁bugoona	-7314
▁flammes	-7315
▁ndokkaa	-7316
▁parfums	-7317
▁pénétre	-7318
▁période	-7319
▁reeƭatu	-7320
▁situées	-7321
▁suptoox	-7322
▁xooland	-7323
▁ƥisiida	-7324
▁ɓisloox	-7325
édictions	-7326
▁Guedalia	-7327
▁Quiriath	-7328
▁encourag	-7329
▁huitième	-7330
▁interrog	-7331
▁ouvriers	-7332
▁prononce	-7333
▁regarder	-7334
▁répondra	-7335
appartient	-7336
▁Israélite	-7337
▁consacrer	-7338
▁dispersés	-7339
▁enseigner	-7340
▁naagangaa	-7341
▁promesses	-7342
▁reprendre	-7343
▁supporter	-7344
▁tristesse	-7345
▁clairement	-7346
▁connaissez	-7347
▁envoyèrent	-7348
▁miraculeux	-7349
▁participer	-7350
intelligence	-7351
▁appartenait	-7352
▁entendirent	-7353
interviendrai	-7354
▁prescriptions	-7355
▁soigneusement	-7356
Ke	-7357
Nj	-7358
aƥ	-7359
du	-7360
ru	-7361
Ana	-7362
Ara	-7363
Reg	-7364
agu	-7365
imm	-7366
ize	-7367
kel	-7368
yus	-7369
▁Bo	-7370
▁Th	-7371
▁is	-7372
▁so	-7373
Feek	-7374
abat	-7375
dala	-7376
ecca	-7377
glon	-7378
oñaa	-7379
uter	-7380
uɓaa	-7381
éter	-7382
▁Pas	-7383
▁Pis	-7384
▁Réb	-7385
▁Sar	-7386
▁cuk	-7387
▁eng	-7388
▁enl	-7389
▁feƭ	-7390
▁jib	-7391
▁lég	-7392
▁xur	-7393
▁ƈax	-7394
Isaac	-7395
aites	-7396
donia	-7397
enver	-7398
escla	-7399
itkee	-7400
katar	-7401
kooga	-7402
ourne	-7403
rasse	-7404
teste	-7405
ukuur	-7406
xeeñe	-7407
ètres	-7408
▁Abis	-7409
▁Bani	-7410
▁Hach	-7411
▁Kiir	-7412
▁Mech	-7413
▁Sauv	-7414
▁Seul	-7415
▁camb	-7416
▁exil	-7417
▁jaaɓ	-7418
▁kooñ	-7419
▁naal	-7420
▁nqox	-7421
▁pelu	-7422
▁prét	-7423
▁sant	-7424
▁sert	-7425
▁simn	-7426
▁vide	-7427
▁waaj	-7428
▁xirs	-7429
▁xooɗ	-7430
▁yuuƥ	-7431
▁ñaañ	-7432
▁ñaaƭ	-7433
▁ƴufg	-7434
andaal	-7435
aneena	-7436
nèrent	-7437
onseil	-7438
ooxaan	-7439
ooxkee	-7440
opotam	-7441
tanaam	-7442
uments	-7443
ungaan	-7444
vement	-7445
zareth	-7446
çaient	-7447
▁Baruc	-7448
▁Haran	-7449
▁Koora	-7450
▁Noémi	-7451
▁amené	-7452
▁bénit	-7453
▁fléau	-7454
▁fodna	-7455
▁inqui	-7456
▁lorso	-7457
▁louer	-7458
▁mérit	-7459
▁paral	-7460
▁rempl	-7461
▁saƭku	-7462
▁surga	-7463
▁tiers	-7464
▁titre	-7465
▁watna	-7466
▁yelef	-7467
▁écras	-7468
▁ƥetak	-7469
aaraand	-7470
queront	-7471
▁Amiini	-7472
▁Daalbe	-7473
▁Elkana	-7474
▁Rebeka	-7475
▁avions	-7476
▁cukand	-7477
▁frappe	-7478
▁guérir	-7479
▁jusque	-7480
▁larmes	-7481
▁layang	-7482
▁mouton	-7483
▁placer	-7484
▁placés	-7485
▁rejoig	-7486
▁succès	-7487
▁séjour	-7488
▁vendre	-7489
▁voisin	-7490
attaquer	-7491
▁Conseil	-7492
▁Geerson	-7493
▁Hivites	-7494
▁Rébecca	-7495
▁Sauveur	-7496
▁déposer	-7497
▁faaxeer	-7498
▁figuier	-7499
▁instant	-7500
▁intérêt	-7501
▁magnifi	-7502
▁ndaawna	-7503
▁nuukuur	-7504
▁procure	-7505
▁renonce	-7506
▁restent	-7507
▁violent	-7508
▁visions	-7509
▁waagkee	-7510
▁waritna	-7511
▁Beaucoup	-7512
▁Nazareth	-7513
▁accueill	-7514
▁cherchez	-7515
▁consacre	-7516
▁diverses	-7517
▁maltrait	-7518
▁mbareena	-7519
▁ndoofand	-7520
▁parabole	-7521
▁remercie	-7522
▁respecti	-7523
▁ressembl	-7524
▁servante	-7525
▁suivants	-7526
▁suungaan	-7527
▁transmet	-7528
▁vieilles	-7529
▁adooxanna	-7530
▁boucliers	-7531
▁personnel	-7532
▁rejoindre	-7533
▁samandaal	-7534
▁soumettre	-7535
▁voulaient	-7536
▁intervenir	-7537
▁uniquement	-7538
▁nqendandoor	-7539
▁signification	-7540
Fa	-7541
Xa	-7542
lu	-7543
pé	-7544
rè	-7545
Cet	-7546
Lay	-7547
aid	-7548
aim	-7549
asi	-7550
eeƭ	-7551
has	-7552
ifs	-7553
mir	-7554
ose	-7555
rhe	-7556
sad	-7557
tee	-7558
uez	-7559
uid	-7560
uub	-7561
éca	-7562
êta	-7563
▁Yé	-7564
▁cu	-7565
▁hu	-7566
▁ur	-7567
Ahaz	-7568
aƈit	-7569
elet	-7570
face	-7571
gers	-7572
nera	-7573
onas	-7574
oure	-7575
éman	-7576
▁Qué	-7577
▁Tig	-7578
▁Vos	-7579
▁Yar	-7580
▁fof	-7581
▁gif	-7582
▁gri	-7583
▁lad	-7584
▁lis	-7585
▁mam	-7586
▁maq	-7587
▁mul	-7588
▁sug	-7589
▁uut	-7590
▁wok	-7591
▁xil	-7592
▁ɓak	-7593
▁ɓur	-7594
akoor	-7595
anqol	-7596
arche	-7597
avanc	-7598
igine	-7599
istes	-7600
koogu	-7601
leena	-7602
tique	-7603
▁Abed	-7604
▁Chou	-7605
▁Héli	-7606
▁Itam	-7607
▁Leya	-7608
▁Njeg	-7609
▁Ohol	-7610
▁Omri	-7611
▁buis	-7612
▁côte	-7613
▁dama	-7614
▁fixa	-7615
▁guet	-7616
▁gâte	-7617
▁intr	-7618
▁keec	-7619
▁laac	-7620
▁layi	-7621
▁liir	-7622
▁maxa	-7623
▁ngil	-7624
▁ngup	-7625
▁remb	-7626
▁roof	-7627
▁samb	-7628
▁suup	-7629
▁terr	-7630
▁vive	-7631
▁ñofu	-7632
▁ƥood	-7633
inadab	-7634
neront	-7635
nooxna	-7636
ooreel	-7637
oteena	-7638
rances	-7639
tisans	-7640
▁Hamat	-7641
▁Hiram	-7642
▁Jegee	-7643
▁Jonas	-7644
▁Macéd	-7645
▁Rahab	-7646
▁Serax	-7647
▁Serou	-7648
▁Sinon	-7649
▁adoox	-7650
▁amène	-7651
▁avanc	-7652
▁boucs	-7653
▁brûla	-7654
▁clair	-7655
▁colle	-7656
▁fexna	-7657
▁fodir	-7658
▁fouet	-7659
▁fruit	-7660
▁livra	-7661
▁mayit	-7662
▁niwaƭ	-7663
▁parts	-7664
▁publi	-7665
▁pénét	-7666
▁revêt	-7667
▁roues	-7668
▁siind	-7669
▁taxee	-7670
▁vache	-7671
▁vivra	-7672
▁xewna	-7673
▁écris	-7674
▁égypt	-7675
▁ƴufaa	-7676
▁ɓisaa	-7677
inaires	-7678
itaires	-7679
iterane	-7680
rations	-7681
trémité	-7682
vantage	-7683
▁Bowaas	-7684
▁Frères	-7685
▁Ismaël	-7686
▁Nebath	-7687
▁Saalum	-7688
▁access	-7689
▁betand	-7690
▁cadres	-7691
▁confié	-7692
▁devrez	-7693
▁diront	-7694
▁décida	-7695
▁examin	-7696
▁faafna	-7697
▁garkaa	-7698
▁loolaa	-7699
▁mbodna	-7700
▁misère	-7701
▁ngidim	-7702
▁nqeɗaa	-7703
▁piisel	-7704
▁reefan	-7705
▁rendra	-7706
▁renonc	-7707
▁réclam	-7708
▁signes	-7709
▁sogkaa	-7710
▁soumet	-7711
▁souver	-7712
▁soyons	-7713
▁volont	-7714
enverrai	-7715
lacement	-7716
ooxoogna	-7717
▁accorda	-7718
▁arrière	-7719
▁changer	-7720
▁citerne	-7721
▁combatt	-7722
▁dalinna	-7723
▁disparu	-7724
▁données	-7725
▁dresser	-7726
▁fangool	-7727
▁garçons	-7728
▁hooloox	-7729
▁jawdiin	-7730
▁liberté	-7731
▁lingeer	-7732
▁naangee	-7733
▁nanaƭar	-7734
▁ndamoox	-7735
▁ngungaa	-7736
▁niwaƭar	-7737
▁njegkee	-7738
▁plantes	-7739
▁sixième	-7740
▁surface	-7741
▁voulons	-7742
▁ailleurs	-7743
▁capables	-7744
▁conduits	-7745
▁demeurer	-7746
▁débarras	-7747
▁jetèrent	-7748
▁mangerez	-7749
▁matiidaa	-7750
▁mbiduuna	-7751
▁meilleur	-7752
▁naanaxir	-7753
▁offrirez	-7754
▁personna	-7755
▁poitrine	-7756
▁prennent	-7757
▁purifier	-7758
▁rebelles	-7759
▁succéder	-7760
▁tribunal	-7761
▁cakalaaru	-7762
▁compagnon	-7763
▁convaincu	-7764
▁davantage	-7765
▁guerriers	-7766
▁offrirent	-7767
▁reviendra	-7768
▁tomberont	-7769
▁Mediterane	-7770
▁dimensions	-7771
▁domination	-7772
▁réputation	-7773
▁sévèrement	-7774
enseignement	-7775
▁accessoires	-7776
▁souffrances	-7777
▁construction	-7778
▁manifesterai	-7779
▁avertissements	-7780
▁responsabilité	-7781
De	-7782
Ox	-7783
eq	-7784
fo	-7785
▁5	-7786
Est	-7787
Ret	-7788
dev	-7789
eba	-7790
enj	-7791
iij	-7792
més	-7793
uya	-7794
âch	-7795
éte	-7796
ûte	-7797
▁Ha	-7798
▁Va	-7799
Puis	-7800
Tout	-7801
adia	-7802
arés	-7803
fais	-7804
imon	-7805
iyoŋ	-7806
odax	-7807
onça	-7808
teen	-7809
tour	-7810
tras	-7811
ulam	-7812
éant	-7813
▁Ber	-7814
▁Hat	-7815
▁Hen	-7816
▁Hoo	-7817
▁Jug	-7818
▁Max	-7819
▁Nin	-7820
▁Sib	-7821
▁feg	-7822
▁pad	-7823
▁pan	-7824
▁rac	-7825
▁und	-7826
▁uup	-7827
▁écl	-7828
▁ƥiñ	-7829
Asser	-7830
Voilà	-7831
abond	-7832
ahath	-7833
anche	-7834
andna	-7835
aperç	-7836
chent	-7837
eeñil	-7838
enjel	-7839
fulee	-7840
irait	-7841
mense	-7842
ommes	-7843
ooxee	-7844
ritaa	-7845
tanaa	-7846
▁bais	-7847
▁bris	-7848
▁cend	-7849
▁daaƴ	-7850
▁exig	-7851
▁fuur	-7852
▁jeng	-7853
▁jila	-7854
▁jiru	-7855
▁lavé	-7856
▁lune	-7857
▁mboƥ	-7858
▁muul	-7859
▁ndeƥ	-7860
▁pose	-7861
▁saur	-7862
▁sees	-7863
▁sûre	-7864
▁teef	-7865
▁	-7866
a	-7867
e	-7868
n	-7869
o	-7870
i	-7871
s	-7872
t	-7873
u	-7874
r	-7875
l	-7876
d	-7877
m	-7878
f	-7879
p	-7880
c	-7881
,	-7882
x	-7883
g	-7884
k	-7885
.	-7886
b	-7887
é	-7888
v	-7889
y	-7890
q	-7891
'	-7892
w	-7893
h	-7894
j	-7895
’	-7896
à	-7897
Y	-7898
-	-7899
A	-7900
S	-7901
è	-7902
ñ	-7903
M	-7904
»	-7905
:	-7906
«	-7907
I	-7908
ɓ	-7909
ƥ	-7910
D	-7911
J	-7912
z	-7913
ƭ	-7914
N	-7915
ê	-7916
L	-7917
R	-7918
C	-7919
K	-7920
O	-7921
ɗ	-7922
P	-7923
E	-7924
B	-7925
!	-7926
;	-7927
?	-7928
T	-7929
F	-7930
H	-7931
X	-7932
ƴ	-7933
G	-7934
É	-7935
ŋ	-7936
Q	-7937
V	-7938
ï	-7939
ƈ	-7940
ë	-7941
î	-7942
ù	-7943
ô	-7944
”	-7945
â	-7946
W	-7947
ç	-7948
“	-7949
›	-7950
‹	-7951
–	-7952
U	-7953
œ	-7954
û	-7955
ü	-7956
Z	-7957
0	-7958
Ƥ	-7959
Ƭ	-7960
Ñ	-7961
Ɓ	-7962
2	-7963
(	-7964
)	-7965
Ɗ	-7966
1	-7967
3	-7968
5	-7969
^	-7970
6	-7971
7	-7972
]	-7973
[	-7974
4	-7975
8	-7976
"	-7977
È	-7978
9	-7979
Ŋ	-7980
­	-7981
‘	-7982
Ƈ	-7983
Ƴ	-7984
=	-7985
Ê	-7986
Ç	-7987
*	-7988
/	-7989
ó	-7990
„	-7991
~	-7992
·	-7993
á	-7994
Œ	-7995
